bed59a4e
bd62c101
bdec6edd
3ca7b3d4
bd95c211
be108ab3
3e12677d
bb95287d
3df0f3ad
beafeeb0
3d3a166e
bdf854ca
bed034eb
bb22c216
bdcc6bf7
bda1b8b0
3d8da5be
be003e81
3cf371a4
bf1cfcf8
3da7e4b6
bd7e1898
3df3e301
bea1e87d
bc7fe265
be8c3acb
3ccf1111
bd92482e
be02730c
bb326aae
3da3fe44
3ce616f6
be8f49cf
bd515f60
be7721de
bf0d37ae
3dfa3829
bbe78671
3dd3a8eb
bed95935
be302442
bc4400a4
3bdc249a
3d3b8c6b
be054781
3c808dce
bdab390a
befa2590
3d179acb
3d4d4d24
bd841ce1
3cdf1c0a
be794336
bf194193
bba1cfab
3c1eb30a
3e682913
3dc39405
3e19237b
bcc52383
bca6ffd2
3dc45545
3d957a6a
bd3c5028
bd616193
bd0fa593
bd8789d3
3a8d369a
3acb9605
3d82eb9b
3c91e64e
beced334
3b861d08
bd5241c0
bb9b1ca8
3c97c3a2
bf029cb7
3c50e1c2
bf1b797a
3dc86e5b
bf082e7c
bd951c60
beeda34b
be97a2b0
be0ce76d
39b1116c
3dca24c6
bf37fa07
bee659b2
bda0914c
be8dfd11
3dafc984
bd3b577f
bec1717d
bf101dfe
bbb0f8a5
bee8f14e
bd3a297b
3e44372f
3a49803b
bec00dd6
bc35f29b
beb4c170
bcb68567
3d837f56
bd4286f7
be743b74
be8d8f36
bd8d4eb6
bcf8b265
bdebf4bb
bd0764d5
be04b700
3d5539b5
bd903c98
3bad991f
bd60741a
3dbe9405
3dc814e5
bd987791
be721e95
3d8c3477
3b8951d7
bd397220
bdaaf230
be26608b
3e1d95f6
3c39a990
3d653a48
beb7a00b
bd7374e1
bbcfcbdb
bee32b4b
bca5afc7
bd5a70d9
bda1a30c
3da0951e
bce519fe
bbe0b6cf
bef14a5b
bc42a3db
3c2e2a50
3c1870ae
be59c691
bd67f3d2
bf4c8eba
3d191dac
bc9b3edd
bdebad49
3d014630
3c76dd0a
3dbc4d14
bf06b52b
3b8757e0
beb9ca54
bedd8848
3d8d4f10
b967adbb
bcdd532d
bee14339
be196cca
bd8f0c70
ba017200
bda99983
3e031d53
3caed9c0
3d18eafd
bed4b12f
3ccf2b5a
bc24cbcf
bd35667d
bc4449f2
3d127a17
beb372a9
bde538cf
bcd80024
3da03004
3dbad8a7
3cef9475
3c5aa668
bd9c5e2f
3d54eafd
bdde8540
3cac3c8d
bd75552c
bca4cbb6
3db6ecdf
3cf83318
bd703953
3dc3fc10
bdb0d1ef
beb2cefb
b7563a1c
3c813048
bce59199
bbe38ad0
bed0ca6f
b6d734ab
be200ee0
3cd311a7
befab4e6
bc6c9ea2
bebf6f7f
be9d00e0
bd1cea1d
bda584ea
bdb1c039
bf0922dc
bece7b75
bbc90936
bece0439
3e0fa430
bcbedd9f
be80004d
befbfe7e
bcaa7fac
bf3e0c65
3d0e7548
3e142fea
3d4f1c27
bebbb951
bda93c61
bea36c74
bd577fe8
3ddfe552
bce11bd5
beb3fc01
be836045
bd79eb9f
3d3e2dca
bd3440ef
bda72b71
be9fa60c
3ddb2209
bd6fbe80
bd065765
3b1440d7
3d1dbc8c
3cc19947
bdc9b517
beba734f
bd7360af
3d3766d6
bd1ef97d
3c0c5dc2
be180736
3de88433
bd5d2d52
3cf253e4
bed242be
bd83bd2c
bd2a45f1
bed354c6
bca183fe
bd85eb51
bcc31795
ba473f01
3c18e6a2
bb825683
bef19ad4
bcfed4a1
bcf7d0b9
3d0e9c43
bea79f05
3d126d2c
bebdb287
bd6aa82d
3c400a25
3d16274e
bc7e05ad
3d9a7834
3e2a7242
bedb5148
bde1c35b
be7b6447
bed3ab6a
3d1debd4
bd47907c
3a324f42
be1f49c8
be79a44c
bd67852c
3d8f55f1
bc29ec93
bdfb35bd
3c85e0fc
bda452ad
bf318668
bc99ced7
bd775ed3
bdb7e6a9
bca4e85c
bcdee2c5
bef9a1d4
be72e6d1
3e0684cc
3e5c6961
3d08921b
3e04d48b
bdd4575c
bd10c73d
3e50c2ea
be5b169c
bc5eaaae
bd10037b
bd2dbe12
be3a3ce4
3e0e2860
bcd4c44a
3d87099f
3d2964bf
bebe96bc
3de10dba
bd2d81cd
bda0627a
bd33cbc9
be6de905
bb37aea7
bebc6d2f
3e6f51b3
bed75583
3d17447d
bea99bc9
be59ea1e
3dd57415
3cdd76a9
bcd5ddbf
bf12d879
be83ae5d
3d134037
be6ae65c
bcb48b94
bd21a5f2
bea13ca5
be86bb99
bd745174
be9e5028
bd9f9055
3d7f791f
bc935daa
bed232dc
bc0b429a
bdad41e7
3dac4051
bd33b430
bc3624d4
be4b11a0
be2961d7
bd2cbfcb
be25c69f
be059ac4
bd0168eb
be510485
3d0d5d0d
3c91932a
bd81eb79
bceee2f7
3d23773b
3ce8e829
bc381082
bf24b77d
bcdafd81
bdfd5991
bd235c4d
bd26729b
be4686e3
3debc885
bd0d8619
3c6830f6
bf2ca78b
393921a4
3d1abe3d
bec3e78a
bd44f831
bd7a5db9
bd32908a
3c161ad2
bde9edf0
bca8df17
bf3184fb
3deeaad1
bd8c3927
bc60632c
bf33ebec
bd8e77cc
bf5e3c9d
bdab5ca5
bd0ebc07
be718f5a
3a2c6cc7
3df664a1
bc783e0a
beb0bbe4
3c808e37
bec589ef
bf4f7a46
bd2f1cd9
3c90f14a
3d86c50a
bf01afc0
bd334fb9
bd89e2b9
bdb42804
bccbe4c9
bd53e9c4
bd0c5729
bd7c738a
bf0edbd1
bd42507f
bdfc24cc
bdc1ae66
bd69c9a4
bf05d6c7
bf035f09
bcf54156
bc457c16
3e1df503
be42df0b
3d58b64b
3d267e9b
bcb915c0
3dd68b77
3cf28194
bd9dc780
bbd11f0e
bdcd4bf1
3c0e29ae
bd564cdb
bcdc73e4
3d447a39
3d34fa14
bf30f3cf
bcc07752
bdaccf23
bd96c61b
3c40ca25
bec8cf0d
3da1b87e
bf054cdb
3d6057a4
bf1eb31e
bd3af6cd
bf398145
be8e01a3
bd6cbb0f
3bc33249
3d3e8558
bf233f8c
bf1774a1
3d176843
bf2b8056
bd18d9c8
bd70a6af
bf35c9b9
befb74fa
3dc84d9f
bec94ca2
3cfb1f82
3dcaed10
bb40fe83
bf3127ce
bd982d89
bf2571c4
bdb2d4a7
3daf1399
3dd86630
beb82246
bf00c716
bde234e4
be2dd09c
bda5d896
3d18c9b8
bd1988c9
3cec987d
bce9877f
bc5f0e93
3d0060a8
3d84d7f0
bde69a89
3d070dce
bef9aa9d
bd275e35
bdc65ab8
bbeadf3f
bb640ddc
bd9219ff
3cedd839
bd9577a6
3d6fa29d
bf23e0f1
bd835837
bc61593b
bead3c03
bd408a9d
bccd1345
bccb3b47
3da049d6
bd86958f
bc0f42a0
bf331c41
3db67ed6
bd13ae94
bd03596b
bef5f558
3c443d40
bef445b0
bdb3fc14
bca5e0cc
3c42a26c
3c56c7c4
3d687d43
3dd38167
be301d6f
3bf67d9e
be568182
bf3861da
3db5b0dd
bd121064
bd1c33af
bee2d054
bdb504a1
bca96718
bd24cddd
bd7cf060
3d796c93
3ae64c1b
3ddff653
bedbd952
bd590bef
3d30147a
bd134301
bc6c5f11
be49c451
becfd0f2
be050826
be2b5a12
3d5523ae
bd6a401c
3d024585
bd47daac
bd63eccd
bd294578
3c5f78f6
bd80a68c
bd1dab2d
be145980
3d331c41
3c8fafca
bd356adb
3de309a0
3cd8e0aa
bf1b5990
3ce2c339
3d724d53
bd379a77
bd95d8a6
be8dc97a
3dbf5e91
befd6bf2
3dd12266
bf05d670
bd1d36ee
bea8794c
be832bea
3a107112
bc6156b2
baa5992d
bf1dec30
bec201a5
3d870144
bebcdd9a
3db8505b
bd1fac15
beea3704
bee41fc7
3d787b9b
bee04796
bd300e2d
3df59b72
3d246f11
bf25fdec
bcffb619
be6c94a2
bc5c24d2
3d3c1551
bdba7b03
be734289
bf2c8bf3
bdb78e03
bdafeb03
bdb8a410
bdd13645
bd84a8d2
3cd67110
3c59790d
bd1a76d6
bd5939de
3d34a918
bca18dd9
3d2a7352
be03ebbb
bbd55c51
3cd7069e
bcdb3633
bc7e23de
bdbf1939
3dbed235
3b264081
3e08ebc9
bf0f46b5
bb1a0ec1
bd400137
be8f5fce
3d7a13ba
bd0da510
bc142113
3d0dd83d
be3aef01
bd6db17b
bf0aba64
3d34cccb
bdb89d3c
3cc206fb
bef3e3d3
3d8e6536
bf0b003d
3c2ce83f
3cb82c30
be5147e9
bd0242d0
bcb7b9cb
bbc57ffd
be9253f3
bd91c402
beb9063f
bed503c7
3cea3cdd
3d2f482a
3dc62ba9
be1e1c7a
be2e44f3
bde60319
3df7de6e
bcdf3367
bccd9716
bd73086a
bd027205
bee1933e
bb9f4cee
bdc9d3fe
3cde3e65
3d377ab4
bbf96034
be85a136
3d3de808
bd4aaeba
3d2c0b3d
bd5510bb
3dd92b7d
3d467488
3cf34982
3ca0b6e4
bd0367b1
bd7accc8
bcc44dd2
bd540a79
3cbc9658
3db63d1d
bd361b31
3ce31c9f
3d14b643
bedff852
3db6dd7a
3d84f87f
bd7db166
bdc0d686
be17ece0
bd8b04a8
bee6bc2a
3d7373ec
be820ea3
3c417cac
be868124
be8fdf87
3d4404b3
bbc93aff
3d930f8c
bf1837de
beac1bb5
bb48b5ad
bf3ec8b9
3d82b286
3b5421a4
bed87453
bf03325b
bdbba32d
bef657fe
bcfcecbc
3b7da7a4
3d1dbf4a
bf1f84fe
3c96daa1
bdc1e094
bd98a5b0
b86672c2
be144a14
be801796
bf35b5bf
bd8087c8
bdb914a3
bbeb5587
bcdb7c20
bd7db3cb
bd1c0454
bd84174a
bdb52bef
3c5bec23
3dd29c7a
3cd9a110
3e07bbb9
bf078e67
3ca29000
3ccf9d02
bcc0a974
bd8e498e
bde80c24
3e6934c7
bdf08d50
3dfb75cf
beac08f1
bcee7faa
3cb8ffdb
be1e32bc
3d2cd4c3
be046679
bdc1c6c0
bc8681b3
be040eb2
bda91325
be704d9e
bc7af57a
bdc848f1
bde45de9
bee0db87
3e01f27e
be814062
bd09507c
bd835a8b
3b236371
bd063f35
3cec48e5
3ded0a10
be300094
bdcbc743
be05a370
bf246d37
be338f02
bd61eff2
bdf1e32e
bd42dcc0
3df5ab4c
bd39d21c
bd598751
bd9d914b
bd8a3045
ba0e5734
bd95ead8
be8a9516
3ced5347
be03ddbe
bdd38e2c
bc688119
be1aabb9
be8b7e27
bda89c75
bde6f52f
3e206b6a
be1804c4
3dcb2250
3d141bf4
bc88464e
3e0d66f1
bdaf8a6d
3cd9dddc
bd6d4c5f
3c01b2b0
be6fc5b9
3d3a6f6d
be26ef60
bdbc5364
3e041b6c
bed08135
3d905751
bd01b271
3c856fdb
3c0475df
beb4640d
3c7581c6
beec60df
3ded4fd3
beb9181b
3cda0519
bed51eb2
be4f1344
3dfa31ad
bc143f69
3dc8b299
beb149ff
bea5ed14
3cb02ce8
be94fbf3
bcfe6812
bc86896a
bf04f89a
be7affd2
be2d668a
bea97e18
bc9f0366
3d8ec908
bcc4081b
be8bbef7
bc8677b9
befc0ddc
ba457ee8
bd9be005
3d9decb8
bed9017c
be06f0fa
bcc98e4a
be611290
bd7a0986
bcd77891
3d893636
3d47f419
3ca40413
bb9c8c99
bd3ff92f
3d97608c
bded9e31
bd1f9989
be05ac32
bbc9e372
bd82d5dc
bc4322b0
3b7f1696
bdc0d2f5
3dd8cc92
bdad9a08
3d9b4a18
be06847d
bc324104
bd4fe9cd
bea6402d
3d88a30e
bd84a2f8
bd0ebdac
3d556b48
bdbf0cef
bcaab689
be021ca0
bcff81ed
bdc6131c
bd92ecd9
bdd442bc
3de2ad60
be824537
bd8ccaf1
bcfbaf1c
be047a2e
bc7b0076
3c18c5f8
3e3b02e2
bed0c400
bde16bc4
be795706
be1c19c1
be1a6da1
3bb0c743
bd85794e
3dda7784
3d0b7703
bcf5e7c6
bdb798bf
be173c57
bd93b940
bdae13b2
bd6019f4
bdb1c1a5
bcd29d77
bda684fa
bdf3b696
3c7cfe96
3db9b7e9
bda8aa64
bd01913f
be0e3f5f
3e34a152
bdea7699
3d339814
3a96f1a7
3b0c048d
3de61ec5
bde2ed79
bd1f104d
bbfa4112
3d8b5eaf
be5d6191
3d450bcb
be14ab73
3c4f30ca
3d2296ed
bd81332b
3ca56afc
3a42a663
bd1723fc
bd500f1f
be9df2de
bca7e875
bd4074de
3cdf50da
be318e21
bb6d7699
bef65d69
be360143
3dfc9369
bcd62d78
3dd01b2c
be6858cb
be4e6d4f
3d6e8770
beb7c5e0
3d2fbd71
3d6d62a2
bf068ba7
be0b41b5
bdd3bb76
be590645
bc29f9e1
3d1a7026
bc63e8f4
beaba3b2
bd5228e6
be9ce4f9
3c0b56c2
bcc405d1
bd4388f7
be61e86b
be4e3006
be02ee3f
bdf70c0d
bd230211
bb6491e1
bdca8d22
3c2f7821
3b9a47d3
bd490c6e
bc102890
3db7b329
bda105cd
3c218c90
beb6e974
3cde3ad6
bc774e33
bd008849
bd17940c
bde93f81
3e8a23c6
3c189dc3
3d841ce0
bec210f6
bd89ef72
bc670f6a
be4b5d79
3ddf0604
bd0e8745
bdb5753f
3dede556
be06e591
bd8d5910
bebfd876
bd194bf6
bcb6f1fb
bcb536d1
be25c232
3dfdb403
bea2686b
bda899f4
bd2dac48
bd9af74d
3cd15d9b
3db7c9ff
3e6bc368
bec93e5e
bdfe31e8
be58f241
be833365
bd5193b2
3a11aa24
bb5875be
be192457
bc10fae7
bda9646a
bc4df415
bd29382f
bd927cf8
bd9a5250
bd316556
beb8bae4
bd6c1611
be12f915
bda7fcf3
3bbe98cf
bc7ce72f
bea9f4c8
3d214419
bdb9f74f
3e5a07f6
bdb16dbf
3e2b3fbc
bd4702d2
be056828
3e6db0ab
3dba85aa
bd878529
bc9b925d
3dc9a324
bdb2dfd1
3c575035
bcac3958
3d15f001
3d6d58ac
be47c774
3cc52f3f
3c642389
3c32a80c
bda75701
bed75c6b
3c07a16a
bec5aac8
3db47ee0
bea70627
bd6bfc51
bec85f07
be15894c
3e1a388b
3b874b1e
bd985aaf
bed4acd9
bed1b55b
3cba78c2
be93bf04
bcb10bd7
3d0c53f4
bee71d55
be99dbce
bca756d0
bea8bf56
bd9f2449
bab53535
3ceb5c3f
bebd730a
bce09334
bf0f0e75
3ddd03cf
bda14659
3d285a50
be904bbb
be607053
bd275318
be086b4f
bbe7283c
bc8766c1
3dcf8b7f
3de6ea3a
3d0a04b8
bda943fb
bdd16bed
3d06532b
3c1bcefc
3cc33ab1
bd6bdf6f
3c6e4287
3d2bb9cf
bc80e330
3c866b8b
be39bc59
3da4ee62
bd5193dc
3e29a166
be2bd008
bd38d250
bd083ca8
3e5b9587
3e2494c3
bc2ccf7d
bdc79d1d
3d53ffdc
3e601a1f
3ca33cae
be80bd96
3e20d285
bdc81896
3d43bedc
bce40aae
3ddf561b
be569ef4
3d4c1f49
bc4aa275
3e5bacf5
bd627367
3e49f0b6
3e835f2f
3e155413
bd84ae65
3e5d87bf
be04d697
3c31e347
bd9cd86a
bd9755e2
be65585d
3c8efc33
be163776
3d816dec
be15df86
bd882d0b
bc167969
bdafb44f
be238bdf
bd20c408
be179e84
3cc38f66
bcb194fe
be90809e
bdf1d26b
be9728ce
bdbe82ae
3e3b888e
3e652337
3e6ea88f
bdec8966
3c7c0b11
3c403764
3cd81c4d
bc9e80e3
bce50eed
bde9cfcf
bdd6bf25
3dfac2cb
be3bee7c
3e17df28
3df5d19b
bcf8bc64
3e0646ab
bd5fb472
bd273ff3
3c6b209b
3d9c6a76
3e649b84
be36aa9c
3e90008e
bd0f1bbc
bda6416c
be36fe17
3e27a091
3e8c39e9
bcfbfa99
3ea596fd
bdd0c204
3da44b79
3e0e4295
be5b593e
3c777f62
3ca0f778
bd462b98
3cc2052c
be8c0555
bdd3327d
3cc6494a
3e6b4d57
3e39bb2e
3d25ea94
bc34c6a8
bcf45303
3e1b9b20
bde69e25
be819cd8
3d626db0
3d55b117
bd7355e7
3d41a703
bd8c97f9
bdb987e4
be1cf583
3d2dc2a3
bd816d5b
3d2c03ad
bdf939bc
3e22aa4d
be448388
bd6098e2
bd35454c
bc37b20c
3cb4448f
bc868402
bd8434e7
be56693d
3e5c44d2
bcea383b
3e738a61
bdb7888c
bbed4c10
bd19e9b6
3d669218
3e1ef194
bc83e4af
bd0b2670
3e378415
3d759647
3d7fb1ce
bdea530d
3e677763
bd999076
bd10bb5a
bd89517f
3e3af249
bed5d173
bca27663
bbdcd7b1
3e40867e
3ce93b79
3dab4b0f
3e812baf
3dfdb23c
bd02333b
3e26ba93
bd7212c4
bda35b58
bd3316b8
bcc836fa
bde72b89
3e6d62eb
bd9c5916
3d639748
bdbd3afb
be323ebe
3c9a7907
bdfa54cf
bdcddd4a
3c185cb9
be415301
38e330e0
bdca3718
bd7b10ba
bd21b547
bd8509bc
bddb1406
3e1dd5b9
3d9fa96b
3d751279
bdd279cb
3b5b5372
bcb53e63
bdfe59ef
bd3b7022
bcf0d45b
be53d929
be942943
3d704f43
beac9294
3ddd8dd5
3e484a08
bccbf46e
bc302d49
bcb57880
bd80205b
ba7f7476
3d97c0ac
3e5286aa
be38cf4b
3e11f736
bdf02c3f
bd98eee0
bdc456d3
3e35bdb0
3e83f45d
bd6d1f9c
3e4249c7
be36161a
3ce0caee
3da9dc98
be88a30a
3e37029c
bd7902b5
bd3ad8b9
3d04332b
be21531d
be572fea
bc45b6fa
3e3480e4
3daa16de
bd26e12c
bd9d0d2f
3d822d96
3d5a77c1
bdd35a10
be120fdf
bcff1b37
3d37c025
3bf066d7
be0446ea
be73369e
3bb8e797
be6bb6b8
bb2cfe79
bd98cc6a
3c0be7dc
bd676b50
3e311fed
be352761
be479587
bda1cd34
be50dcdf
3df92540
bd1df0f7
bd187f73
bd7e231a
3e8927a7
bd6a3155
3e8c0dcb
be118c12
be0c0755
bd85660f
3e0245c7
3e79b3be
bdb2083e
bd590f71
3e627a99
3e6b6168
bd5cc411
bdca42ef
3e96ad71
bc9fa2d0
3d889cd2
bdba7355
3e2b945b
be406153
3c512163
3d61b8d8
3e80bacb
bce9ea1f
3c887516
3e902ced
3e2e58d3
3c657e6a
3e16ecbb
bdd2e3f0
3dbb1d05
bdf42175
3d412b67
bdce477a
bd9eab4a
3d9a95b2
bc51e699
bd3b2aca
bde06faf
bd82561c
be513248
be8b8cea
bd527bc4
bdf0f506
3cf163ee
bd2161ee
bdcb4451
be082120
bd539652
bd8fa0c5
3e106424
3e5a6fa9
3e09bcf1
384dceef
bdf07657
3ab8e746
bdc8f5dc
bda031f2
3c7eeb70
bd1640b4
be412594
bcbef3f8
be796129
3e216cc0
3e726eb5
bd957076
3da02736
bb68bb83
bdd8f399
bd0d9890
3da654ac
3ebe44ef
be5a1349
3ec0472a
bd087976
bc9af397
3c99c091
3dac1250
3e87619f
bd82d9a5
3e8eb87c
bd94b777
3dad23fd
3e3a4cd2
be6f9f7e
3e09f0aa
bd4f8d1f
bdd20db2
bd2d4661
bd4a7371
be0cee91
3d125fe5
3e96f2fd
3e48ab64
be38b10e
3c75d295
3bdebffa
3e21189c
3c9bf8ce
bdff3376
bde7e63c
bd124ee2
bd209233
bde79789
bd176edf
3c338f18
be8f60a2
bd7ab94d
bdf33db0
bd839e8d
bcc0721f
3e742c0b
be37c20e
bdd3b4b5
bdb5b3c2
bdaea5c1
bd97ac59
3d391503
bdb17c5e
bd81b50c
3e7e0ebe
bd938815
3e893e68
be250119
bd869421
bd4f584d
3de08544
3d9fd204
bdb83735
bd840cfe
3e01d106
bc421286
3d9521ba
bd65e2e8
3e121b06
bdf29b3d
bdbe8470
be87463e
3e3ad3c1
bf26abe6
bdae720d
bdc62733
3e02e964
bd35e03d
3cf90c05
3e5202c5
3e07796f
bd6b17f9
3d9ae658
bda8ec56
3d2dd5c4
bde3642e
bda98e22
bd077756
bdcc90b2
bde6b4a1
bd850ac9
3d1edfc3
be090e61
bb702c5f
be83e725
bd3f4faa
bd956c81
becf158d
bcb2c63d
3d237c75
3cd59a4b
be1a3859
be355828
bd9d802c
3e6d0d07
3e0829c4
3e2b9e60
3bbc0bbd
3d95aaa6
bd3fdaa6
be2d7247
bba0a31e
3b6b70bf
be4eb18b
be9b8f3d
3c06498b
bec84420
3e37a619
3de6bfee
bd86d41d
3de519a7
bd676d81
bcb750b4
3afa61cf
3d20be72
3e4f2664
bd36b622
3eae86b6
bd99c312
bd1507c5
bd2a46d7
bb9c16ae
3ea52875
bd76798e
3ea0ff22
be95294a
3e393413
3e0973a3
bef9d4b0
3de3bd7a
bd52d9fb
be265732
bd81a365
bed0c502
beaec295
bc44af0e
3eb3ed56
3e8e1dd4
bca0e748
3d064a48
3d48d1f2
3dc8570e
bdf229ab
bedad9d3
3c0aba86
3db79da4
3d6379d5
bdf84c7e
be52db32
bd7cb21e
bef85e6a
3cc2da61
be16f135
3dba5e37
bd87db57
3e385357
be5112b1
bc6f8e1c
bdaf144d
bdab3310
bcbbc072
3cd70d5b
bd910ff5
be6ca9be
3e762a0d
bbdc2ce7
3e991e89
be14352e
bb914fc9
3cdad9ab
3d1153b6
3e36edb3
bc677867
bdcbbcc6
3e3ed9f4
3bbddc74
3b90227f
bce0e54b
3d3828e1
3ca4e92a
bdc9dc19
be0483e7
3e2fc8c2
bef86b08
bd8c13ea
be4b5cdb
3e583635
bd9e9685
3df97588
3e9fd0fd
3d73710b
bd074846
3e03d6aa
bd3946da
bb5d8c33
bb241936
bd7d26ce
3c61fb7f
3db54575
bdbc620b
bd0a605c
bd54bb63
be81adc1
bc59c515
be8b7e44
bdbbdc5c
3bcbfe34
beb1123d
be063f1a
bd43ba4e
3cbc6ef7
bce705f4
bdfe9cc8
bd9b07ba
3e83bdb4
bcd289b3
3e0ae88f
bd9eba98
bd5c3190
3df04217
bddc3294
390511f7
3c0b322b
bd9e97b8
be825bf2
3cc46c87
be694ac1
3d8eb243
3da53d5a
bbc3a6f4
3d7ff42e
bd9d48c6
bc816fac
bc9a0bfd
3d4d8bff
3db1dfbe
be26eb40
3e31c5ec
be17ddd6
3ba25a99
be1669cf
3cd69399
3e99442d
bd90e658
3e78f552
bde91e85
bb6fb007
3d9b54a3
be58a8ec
3d202cc3
3a0b8e35
bdec587d
bdb73dfc
be7a3836
beca4825
bd8f330c
3e7efcb3
3dcfc4df
3d01e3e4
bce63e5b
bbf6480e
3e38ca48
bd80fcc0
be9b8275
bd6d49b3
3d024586
3d810ba3
be6ae6e7
be8e43ba
bd6b70f4
beb54879
bd5464a1
bca70c83
bd3d77c9
bca76eb9
3e2092cc
becba5b3
bcb3d5ad
3c8355bf
bd667b54
3d30d080
bcd69136
bcd2f9e1
be119aea
3e5001d5
bd53583e
3eb23084
bd62a837
bdce3c50
bdadada1
3c7e528e
3e132564
bcbf836d
bdebd5c8
3cb00018
bcf31c24
3de3c24d
be2e0722
3dc0dbfd
bdbd0f17
bd02dad5
bc6760ce
3e216bca
bee83a77
be52b8dd
bd175d58
3e4e4652
bde5e127
3d3b903b
3e88ef23
3d976a03
bd9108e6
3e1e5714
3d9529bc
3d97f71d
bd7d5df9
bd5eaf88
be205184
3caba60a
bdcb59ec
bc7c3169
bd8614a0
bdf11e79
3cb779a9
be832409
bcf02644
bd1eb118
beee5d70
3d0d5cb0
ba633e31
3caa806c
bd99da64
bdebd666
be20dd2c
3e3f6afe
3e015f46
3e0d070f
bceac068
3c9f0581
bd934836
be58201d
bd95cc96
bbdfc042
be17aa6e
be97c759
3cdaad2e
bed194fe
3da7bec2
3e14de02
3c1d7e5b
3d89ceec
bd83da00
bb9badb3
bcaf4b70
bdb2b381
3e2019dc
bd421240
3ebb91d1
be1a8e8e
bcb8d787
beb0f11a
3e2cefb5
3ed92de6
3d1552cb
3ebb250d
be757e1a
bdce4be6
3e1b232a
be7ef68e
3e4842b4
3ca4bcbc
bec2465d
bdf78c45
be4763a3
bec8db5f
bd63e840
3d9a43f1
3e8d4634
3df48a11
bd36b0f5
be412c8c
3e090427
bd1afe31
be8890cd
bde2c88f
bd191b5e
3d673f54
be327dd5
be5b8c49
bd446a55
be79da09
bd9da81f
bde9258d
3d18e5cd
bd1a54ff
3dfe6b20
beae30fc
bd8c69b9
bdc2ad43
bd816f2a
3db6ba1e
bb75e232
bc2c3333
be49ab75
3e408b86
bcb20b84
3e5ccac7
bdac49a4
bd9f77a5
bdbdac19
3e35f4f9
3dd29a68
bdad6c98
bc49e619
bc63cfce
3e135793
3d4c2760
bd8fa6b8
3d8d9917
bd1fbf21
3d04063d
be00be6f
3e506e1c
be86d603
3dd93e44
3d6a1056
3eb2ccd3
3b16aea9
bd5ba5f0
3e22285f
3e83e356
3c079c17
3e8bb07e
be0bab30
3d8a4534
bd834b58
bd182ff9
3d93cf1e
3bcaea83
bd82d438
bcf9f7bc
bd65675c
bddd4ea9
3b0efbb9
bec49011
bd924c1a
ba2fff71
beb07e45
3d554d17
bda4b7f3
3d8aee60
be3027bc
becfd235
be5835ef
3df5df1b
3e226407
3df51c80
bda2f583
bd2e0bd1
39a1a985
bd986ef3
bd40506b
3c26e517
be79fb7a
be699af8
3b8b4f70
bebef3b8
3e1ca916
3e34f63d
bda9b8d0
3d5818c3
bd353ac2
bd83d87c
3cb85829
3d6e3bf4
3e9b46e3
bd7a4044
3e9ebdd6
bd9c934f
bddc3ffb
bd8016f2
3e6322b9
3e7bf0eb
bd23658f
3e845c37
be074933
3ce2561a
3d3fb9fe
be9f615a
3d85f859
bd72840e
3bbc1e9e
3d640bb5
bebac63c
bd5b0cf1
be2a20b7
3e0025c5
3e4e2d4b
3d934224
bcdce6bb
bd0291ec
3e5ec2dc
bca548a4
be7e2cc0
3d161f01
3d95b6c4
3a161a6d
be0f4408
be894d02
bcb10e46
bde24cd6
bdc85f7a
bcb9306a
3d2615e6
3b766933
3e191f24
beca9fe0
bbf5da54
3caf3625
bd38a32e
baf7738c
3ce69de1
bd7222e9
bdd89402
3d9083be
bd69df2e
3e274385
3bce2c8b
bcd6a1eb
3c891ce2
3ca00f1f
3e352a7f
bd428e33
bd8e8190
3d94e102
bd34eeaa
3c066f53
be10e3e6
3e0f8f4b
bd1d9129
3bdc956d
3ca05625
3e117731
be570915
bd68eaba
3ca303e0
3e162d82
bd877600
3db156a9
3df71e0a
3d66d553
be074f17
3df904b9
bcf3b569
bd19b230
bd482210
bccd0fe8
3bb31e6a
be468c7c
3d20188c
3d342280
bd0b1f30
bd16a71a
bc509799
be1cb3de
bc2cf060
bd36d7a2
be9782b2
3dd46d1d
3b5c81bb
3df993ed
bdc7d500
be9c3483
bdce62e4
3e2c893e
3d87702c
3e19d05e
3d0cfbf0
bdadd904
bd2558fc
3c34baf1
bd5440ed
bbb81160
beacc1e5
bdd4c41d
3de06893
be90365c
3e16befc
3e6c79b5
bdc05f6b
3d934e73
3cb09919
bd1d301c
bcdaf199
3d348858
3eabd303
3c6ffc75
3e742480
be120d9b
bdce3bcc
be4740fd
3da90a37
3eac7059
bd904b96
3e6bf5de
be45df23
bb85eb52
3e609018
be46bbba
3de8bd97
bce26257
bd9cb870
bd9cf1ce
be1f484d
bdb29008
be18a9b3
3e2b0319
3d5a855d
bcae33a3
3b9f5536
3c89e313
b9812849
bc20f673
bdfca8cb
3c97c024
3c210f5e
bd0f6803
3d9cbd6f
be04c928
bd5add4e
be2d2032
bd00346f
bdd7caa9
3ce38720
bd6c9b6c
3d63d80f
be82fd67
bd91c833
3d955747
bcbc8442
3e8c7aab
bcb1a4e9
bdae3426
bdd292a4
3d5fdd83
bd7c8645
3ec33e48
bd42ef43
bd16c521
3c1d1500
3d8eeb4e
3e8c89f7
bd7912c6
baf97944
3b3c28be
bc15bc09
bad14cb6
bd9f3ab8
3e1a47df
bdc77433
bc120f2b
be301820
3e11c9ba
bdab1ffa
3d2b07b1
bcda7cec
3e7e80ee
bcea7eac
3dc9fdc5
3d762432
3e47c0ad
3c13ba89
3e14055c
bd5ce714
3d799467
bd238bb3
bc94f096
3dbd108b
be05747a
bd0e94f4
3d06b59c
bbeacec2
be63550a
bc9a87ce
be75e045
be015d02
bd1d05ae
bea566eb
3ddea44e
b9b768c8
3d80f513
3d426e67
beacfab4
bdb0ce55
3dc98dac
3ce2c158
3c6f9cbd
3ca4d9f2
be085920
bace3839
bdb968b3
bdd2ffb4
3cfda981
be9dcead
be172f69
3e0f49a6
bef6df1d
3e61f01a
3dca03b9
bd8cdbbd
3ca3fe19
bd9bfebc
3c0cc02a
3c93a68c
3e15b505
3e67af31
bca79869
3eb3d57d
bc909bab
bd989160
be10c795
3e266ade
3e91dc75
3b46f2ec
3e5120b2
bda4b0b2
bcabe5f3
bca92eb8
3bd0644e
3d3365ea
bd373eee
be03b089
3d159010
be107155
be322148
bdae5bf9
3e37d30e
3e224d45
3e09bc08
3c93cfe5
bd6aff94
3dd710e5
bbfb3872
bd7ca1f2
3dad9c39
bc03336a
bccb6ca5
bcabde4d
be33df08
bdc52ac8
3d9e1aa0
bd0c4ec9
bdadc7f8
bb032c24
bd846180
3def4423
be0dd184
3da57a21
3d27bb38
3ca15bbe
3d1888fa
3ac2fb54
bd2e83b7
3e0dce44
bd9f2191
bc4991de
bcb8355c
3dfd558a
bd47b7cb
bcf13b76
bdc2e941
3e0aaa2f
bdaae880
bdb511ea
be2181e0
bd887798
bdb11a4b
3db7cc72
bd89e8f6
bd71a0ed
3c2cd8c3
3e062f49
bd9a47df
bea0731c
3d99389f
3d4e9e4a
be2a7f68
bd6e2ca0
bd797a74
3d03e812
be08fdc4
3d3ec6e4
bd717ac8
3dd89758
bd922119
3cbfdc32
3e3075b7
be242f8b
beb2f129
3d3b5aea
3e0c19ce
bd340e9c
be923d0d
3cc278c5
bc4f809f
3d24cbcd
bc961d14
bd35bc40
be052a99
bd52717a
be5f7d2d
3e02cb86
be3eb29d
be06aca7
bdf7afb9
bda56ebc
bd2a6d50
bcf52780
3ced217f
bd13a27a
3cd84924
bc70e1a9
bdab48c3
bf08c404
be2a0857
bd5c2911
3d251c7a
bccea8c1
3d858c8e
3d8f04a6
3d930830
3d24af77
bd27ea73
bc3a0954
be9afd7a
be565d41
3d43094f
bd8160e0
3e5a7e03
b9c3d61c
be120b2c
bd5fe6db
bd86d13d
bd96f69d
bb7d71f6
3dffa340
be235718
be2ad982
bea33ad0
be7c20a6
bd29d896
be6cad10
3c66141a
bec21f9c
bdde585c
bda924a8
3d577534
3c75223b
bcc11b6d
3c4ba623
be1fd9d7
bdf0568e
3b011045
bf01a355
be7c6a48
388347f6
bd335d0a
be85b533
3d222fe1
bccbc7de
3c3d6cb0
bdb055dd
bd3d3720
bd760e02
bce56169
bd9da40e
becfc8cf
3d8683e7
3e2dafaa
bcd06369
3c95264e
bcb0cdc3
bcb056c2
3b8a6f33
3cc3551c
bcced875
3d9a3da8
3e0215af
bc99d73e
bcf80e9f
bd3b62ef
3e11edf0
bcf047fe
bc86595b
3da18356
bd2d70fa
3ca27332
3e299ad6
3e14ff92
bd35b609
3d3e75ab
3e54e541
3d334446
be5960fc
3d450333
3c55781c
bded4103
bd838248
bd9798d8
3dcce97f
bdff2dcc
3cb7976b
be0f86d3
3e33c304
be325b66
bb791d9c
bc10f47b
3cf6d887
bb333516
bdd35216
3df0b60f
bc8c474b
be1b5cb6
bd87b32c
bdbc9366
3dd1b278
bd4f03cf
bc5a99bc
3a41791b
be020f8e
3c36404e
3deecb8d
3d6072cf
bdc3ad6c
3c0147ee
bd890b52
bb15191c
bdfdff5c
bb4f6bc0
3df9460c
bd58843f
bda5d43f
3b4a0650
becb44f2
be0873c8
3cdbf0f8
bd62a3c7
bc3ee31f
3dcedc39
3dce6f96
3ddafaa2
3d2eee2b
bcdf30a8
bc41fa0d
be18edec
be343023
3df145d8
3ddd39e5
3d696df3
3ceeb000
bdd569db
bda881a8
3d88c09e
bc0f3889
3dd583ef
3e4ac315
be8a8074
bd780b12
be9c8354
bd8a087e
bd753e72
be7f6393
3ca8cb0f
be888e41
be156fa4
3ca94675
b9fb9ff3
3e09b51d
3d5996a3
3b4659df
be17f782
3d9a5839
bcc2ac20
be84cf9f
bdccec90
bdbd6775
bd089403
bdd95a81
3dbf5f18
bde54fd3
bcded3e3
3d9ebb7b
bd882d59
bd90cd8f
bd09accc
3d8cf1ba
bed84649
bcd560a3
3e14bd3b
3ba6bb30
3b8d1593
bd2f5eff
b995de1c
3caa4b08
3d7c7021
bd143cd6
3e7727e7
3db6fc5b
3cd4854a
bd17e1d1
be6f7818
3e651e65
bd85a257
bdf4c572
bd281145
bd78703c
bcd57816
3dfa9f98
3d6d04bc
3d39c8d2
3da0da1a
3e62cc1e
3dffe408
be1b70e5
3e0c6efe
bcac5e77
be4815e8
bd9f82f2
bd459495
3d7c7e7e
be5e9162
3d7e836f
be235724
3e6c3611
be23d4cf
b94918c5
bd7edabd
3db1f084
bf0f6cd8
bd51823a
bdde3838
baa719ec
bec93ff2
3cfcbcba
be80a33c
3cb50578
3d2c9b5c
3caaff4e
be90ee97
be249822
3dbc9a0c
3e156bd8
3e22d300
3c35b0bb
3d8eede0
bdb53739
bd7094b1
bd09e459
bd282c44
3d365d41
bc2c2306
bd13c54a
3d0dc9d9
be4d3533
be757d94
bd8ed148
bdb8d730
bd86cc12
3e0be840
3dc1c3fd
3dbb1dc7
3d41f504
bd1cfdf1
3c8843c6
bd2e534c
be5dbdba
3d6850cf
3daf9f0f
3def42ba
3cf3a4f6
bb78f46f
be377eaf
3e57b0b7
bac4f244
3e343ec6
3cf12521
bdcd784d
be9f97ad
beaf3111
bd7c4b60
bdd53514
be2efb06
3d1e19ca
be45bb95
bea3e3a1
bd41e0d2
3d81784e
3d18ac0d
bcf7453d
bc1508cb
be14d650
3c2e8440
bdff77bd
bd53c32a
be01dfaa
be12d82d
ba8b5cac
be60cb01
be8aef2b
bccb2287
be42ada4
bb7e88b1
bd69b3f1
3ceaf458
bc9f2c74
3e18dd28
be6b185b
bdec9f5e
3dc8b328
3c695934
bd7f98b6
bcd9f77c
bcdd45ae
bd6c37bd
bdf78d11
bb4fc37c
3e2a1a4f
3d739069
bc9a1608
bdf8c960
3d86aa90
3e034e7f
3a908d0f
bdaf4b2f
bb7c3d04
bdee4bf4
3d83ecf0
bc809c46
3daa85dc
3d1bd833
3db910d5
3dc13ccf
3c86866f
be867763
bcb9e088
3e00f7f5
bdc352e1
bc114f6c
bd8a2852
bd94115c
be123382
3d06d3b9
bdfaedae
3d89c046
bd5e4407
3bbbd288
3e481f47
bd471e1b
bce667d8
3cc20101
3e825365
bc76f667
bee2301e
bcf4669a
be5b0335
3cc4ff8a
bd8a9b5c
be524ce8
be873426
be0f2669
bcbf2427
3de7b8e7
bc9a9a15
bdac4d81
bd6b2726
3bf8f277
be333786
bd0db3e9
3c7c06ef
bd0cceea
bcd79a88
b9ef7787
3d08bd8f
be9fc186
befc40f6
3da112bf
be0441f4
bc6bc358
3cfe2dc0
bd0cc868
3e2137b1
3c62bc12
bd5ac058
bd38ad94
be455631
be2b46e1
bd069ef8
3da92077
3e0378a9
bc6e8527
be77fe8d
bdf50fe3
3de94ad7
3c98ee94
3e32bb22
bcaf9f7f
be1e555f
be49d17d
be602c0e
bd906883
3d0a77bc
be81db2d
3d63ea3c
bf156246
bbd0671c
3c8bb42e
3e1c61b8
3d478a28
bd29f88c
bd9a9a83
be80119c
be1a93aa
3e4736b3
be9502b7
be6633ce
3cadcb38
be1eda5c
bed1d6a3
3d998892
bd7899d3
bf06748d
bd5b33cd
bca85c2e
bdc48ef1
bde7fb48
3d06a9e6
bef639a6
3e5fd9a3
3dd8fcab
3b3285c0
3c2ea450
3c09978f
3c1be5a9
3d8525da
bd9e9197
3c80117c
3dd19a1e
3dba40ff
bd8419a9
bc8aa78b
bdc3a8af
bd57029b
bd95ce66
bd5c14e8
3d84cdb4
bb6c302a
3c9a9ba2
3e017917
3c3822ea
bd1ab0ea
bd362cb4
3d73db06
3d9543be
bdb1fd08
bdda5f00
3e3fbaa9
bda41c13
bd334ec5
bd75f7fc
bd8e6994
bd2e6a1b
3d570f83
3cc858d6
3e16781e
be0e9555
bcad90c5
3daef6ed
3cee30a2
3e271141
3c2023f6
3d9fe5df
bd5fbb19
be3b6558
bd9868e7
3d0aeb2c
3e2cb163
bc87df72
bd2a4832
bde66642
bcf447e9
b9381eca
3e2a7653
3d2c136b
bd93a280
b9e57154
bd366bbe
bd36b878
bc9df975
bdd911cb
3c58fdd6
3ce8cad5
bd30e00b
bc3391ee
3dda854b
bdb28d6a
3e2d9986
bd4e2cd7
3dc0e44f
bdd28ba2
3e0487ce
3d82891f
bce837e3
bd0506e8
3bd2211b
bda5d9b3
bdcd026d
3e0f57b0
3d5bd750
3b638332
bcec6333
bdf6b14d
bc4fa029
3db96fd7
bd4470c8
3d52f324
3e5498f2
bcf4873c
be45d07a
be7c134b
bd0c9d04
bd74a164
be2c3172
3dacca18
bec8f810
bc73090e
bd71c8e2
3d3d17db
3b1e64b7
bb1e936b
3c74c8d1
bd84b227
bd2b8d50
3d75e311
3dcacc0f
be04da0f
bd15ea13
bdc214a4
be2bbf8c
bb78a74f
bd707ecd
be80a84f
3e1c155a
bd4b2c15
bcdb56a9
bcd116c0
3d226266
be172c95
3d8216a6
3dff44c2
bd4244e1
bd16a018
3ceefdce
bd90c3cf
be0a8df2
bd2e726f
bd5046da
3e4f7124
3df5761e
bb61bda6
bd03ef66
bd3f2938
3ddcc841
bd43a825
bd80bde1
bd915443
bba078ff
bdb9b0cb
3dc171fa
3d2da07f
bd30b3d7
3b3a25e6
3e02dab7
3e6a3ba0
be3d14bb
3d26ffa2
3df470c5
bd2e3fde
bcd1c884
be07fb69
3a5c5148
bd89b4f4
bd0248d8
bd9d3045
3d8b5769
bdf5c6ba
3d21d82e
bdd16f3c
bdac4e39
be35e66a
bded3a5e
be0ea63d
bcf95bc3
bebff8bf
3ca258df
bdd3f0b8
3d9319d4
bd819d4c
be0c027c
be83ac6f
bdc3ab50
3c27bcc2
3e4e4db6
be449c73
bd51db1f
bd7a5aa7
3ce5d931
be28e720
bce7d2ce
3ce66177
3d8d29e1
3d0beef7
3d185032
3c338411
bea1dbe8
bea80b21
3deb138f
be60ce19
bd8cb50e
3e5b7bd3
3dcdfda7
3de72d1a
3ce93557
bdc527de
bc029a80
bd2d15a9
be59e3ba
3e031f28
3e734cf3
bd1209a4
3cb5d873
bb41aa43
bd405461
3e333f75
bd8720bb
3e313cff
3e5fc831
bdf52c27
be21f604
be9d9edd
3dad997e
bd8d09bf
bdf6f123
bb3e650b
beb424e7
be34d82a
bbd2015e
3e49d185
3d86dcf3
3d9e05dd
bda4ec76
be171596
3b8ae871
bc8d97fb
be7086ac
bd8f0bd0
bd50ec6b
bd39ac7e
be31ae18
be554eb0
bd25bc62
bed41790
3cb8e911
bd9155c4
3d3ffc16
bd24fad7
3d630cad
beaf135f
bdb032c1
3d68eba7
3cf8c49c
bda3b46f
bceff7b3
3b76c301
3a9207cb
be148d23
bd8882bf
3e16150b
3e2ee83d
bcd9870c
bd963c83
3d7d7ca4
3e2fe1e5
bd1db8fe
bdd3883e
bdb2fed5
bd1b550c
3df183ef
3db08282
bddaf989
bb21277e
3e1d32f0
3d9a330f
3d7cbd2f
be05ddce
3cf4109f
3dcff34b
3cf11f65
bc530510
3b2c9931
be4b2193
bcdcda07
bc6ef4e0
bd6cfa89
3db008fd
bc897fb0
3cd63a7e
3dba1321
bd86b361
3ddf5a5e
bdb4f218
3e2c5df6
3cc83a43
bf16dcca
3bfbdcf6
bea73575
3dbd7a36
bd9700ad
becfd46f
becba4ba
be40ebf2
3d9302ee
bc2d5695
bec50db1
3a95d37d
be00385a
bcaa236f
bd6a89d3
bd88ce4e
bcd0e86e
bce42442
bda15a38
3c7b942c
bb6c7938
bf2f2d29
bef75f45
3dda7ab0
be93830a
be1ab2bf
3e3530fe
3d3026e6
3e7e1712
bc2a4bca
bd471a84
bd540b60
be2dcba2
be56babf
3d6497c7
3d378769
3e672eba
bb8c825a
be8086b1
bbdf3da4
3c850160
bbfa6dc9
3e0e16aa
3db24cf1
be48ec1c
bebeee81
be83960e
bdc68f4d
3d900d22
be294c0a
3d62dd20
bf26d36c
3c5e125f
bca1aa42
3c3cd253
bdd87faa
bbfc63af
bc678916
be35199f
bd99aa04
3db088b8
be79976d
be6a28a4
3e22ad24
bda1ab33
beba5f97
be9eb669
bd610c25
be34002a
bbb621c6
3ca5e453
bd19deb9
ba6c439f
bcd13eec
bf13584c
3e881d01
bb86436e
bc746190
3cdc8afe
bd52341c
bda307eb
3e42ad77
bddda768
bd02ce44
bc49172c
3da26464
bda30077
bdc48077
3c52c5d3
3dbad0a5
bd01e548
bd9539cb
bd263a8a
bc93d2e6
3d569898
3e1cb2b2
be0d2f33
3d3215ea
bd7c7873
3d1c421d
bb9d243e
bde06c89
bcd95749
3d05fb5f
3caf31fd
bc3c81df
3d25b24a
bd8f3be7
3daacb3b
bdc8fef8
3c821621
3da75e53
3ce3d15a
bd592285
ba7ed5bf
3cd4860f
bd18f744
bdb1066b
3d2115f5
bdff5fbc
be0a8079
3afca7aa
bdd5c08b
3e025bc3
bd768d2b
bddbf303
bcfd0dbb
be05bc5d
bd5a567f
3b595d46
be175914
bdc6f7b8
bdecd53a
3d9bfe43
3b74318b
bdbe0add
bcb14078
3d7e18e1
bd435014
bd8f2791
bcbae32b
bdb1b087
be76b81a
3e32edb2
be1d0718
bdb9529c
3e2ab707
3cee781d
3e4e3ce6
bd595684
bd67b8b4
bce3d70d
3c0c7bc4
be0b4177
3ddfa1c4
bccc93ce
3e24e7a1
bd76b865
bdb3db3c
3d8bc274
bca9c19d
bd8e6bbb
bbf0dd89
3e2c66b4
bda83bc2
be1ef24f
be85f00e
bdb7e718
bdb9e031
be2255a4
3d0728a6
be44058a
bd1dc937
3c5a2482
3c341dd5
bd20db19
3c762187
bd3bd3f5
bd4b7265
3cb5cf6b
3d5a1a7b
be2259b9
bdb4550f
3e09977d
bd186070
be962bfc
bd2f4375
bbdc32aa
be56a57c
3e084af8
bd497084
bcb802de
bd6143f0
bdbad3bd
beab90d5
bc165e22
3e7ab07b
bd9220cc
bd6d6629
bc8b4cbe
bd23c8c1
be7fad54
3c71d1b1
bd891406
3e02e536
3d829ebf
bd6e46f7
bde78613
3d0a63c9
3e50cfb2
bcc39bc7
bd074f11
bc414f60
3d962f27
3bf94de1
3df3ad05
3e168e40
bd3b7631
3b9e7f5c
3daff33b
3e572b22
bea582ee
3d7c2da4
3d6d7555
3d51d695
bd6e44bd
bcdc473a
3ccc3f1f
bd269c7b
be0f2129
3c8da245
3e47db00
3da41057
bc73e2ae
bd99695c
bc1cdab1
bf08722b
bd7ea8e0
bd8c76bb
bcb2a3a5
beb0ef66
bd6536c6
bedae256
3d81a566
3bebabb3
be5546e2
bd8fbd61
bda3527f
3d5c7539
3e200818
be9febde
3bfda5b3
bd084388
bc87b928
be6ef7a8
bd6d9d92
bdb8e843
3d90f171
bdaacc03
3cab8403
bd3e41fa
be9da93f
bed3fc3f
3e1607f1
be7f79f8
bd0a689d
3e7d4931
3ded8d40
3e374e49
bdf85369
bdba95dc
bbb3139b
bdd9ddc8
be853834
3e014478
3df95073
3de9af49
bd0d1ef7
bd96b9fe
3d83f438
3d9eaf5b
bcecf3ba
3e0c0d5f
3defa7ad
bdf98ff2
be2915fb
be17b6c6
bd11a5cf
bd991565
bc7abeca
3c339697
bea46796
bc9907a6
bd6fe656
bd6ea945
baded692
3d9b4df6
3bf51e2b
bdbd8efb
3ddfba0e
3cacda63
bded984e
be001635
3d1187f8
be085ebc
be8dfd17
bd3de0f9
3d1de28b
be861089
3e576cdb
bcaa464f
bca16382
bde8c5a7
bbb63e11
befd9ef2
3d8cd606
3de10c36
bdb7453b
bd8f7bbf
bd89c2e8
bcd49cf2
beade1e4
be6360e0
bd8299ea
3eae0daf
3db57d71
bd3ebd6c
bd3927d9
bbf2ec8f
beb5c9f2
3cb9de7d
3c94c483
3dbc257d
bc90db39
bd439313
bd40f06b
bdc0dc64
3d06524f
be32436f
bbb8f8a7
3e9b147d
bf1413f3
bddd692d
bd2f3cb9
bde0a25c
bd6001cc
be2aac91
be8e6526
3dbc82d8
bbda2298
3dad470b
3dde99e6
be1ef9f5
bd8eb733
bcb273fd
3d4c3fb1
bcd2f3e7
bd3162fc
bdf13024
bc20596b
bde839ba
bc8f069f
be8a1032
3c140087
bcd992b0
be1ee24f
bd0f8ac4
3af45b52
3dfcae9f
3d36d910
bdfb7b18
bcfb77aa
3de9d0e2
be2a3ba8
bc89da7f
bde92911
3d9df484
bdd9aa2f
bd97d28d
3d52f99a
bd88d32a
be9577d8
3dba25c6
39da6148
be5c7800
3e33f47f
beda9274
3cdcb704
bead23e0
bc6c41a5
bd5dad5f
bd8a1b82
bd20d40f
3d6a23e5
3d874937
3e9c269a
be146a37
bbe8d569
bd72f6eb
3c84363a
3e5e70c1
3b3c4741
3e947471
3d1bc2b4
bdfa57f8
bc0cd1bf
bed1f6d0
3e80127c
bd8c9523
be0b1932
3df16ad3
be3e092c
beb8ca8e
3c05af0c
3ebe3c36
3e47ce5c
bc752d55
3c384e4c
bc995a90
bdcafe15
3d459f6c
be29ff35
bd9c67bc
bdac998a
3c4e2c62
bdbd9c8c
be471da7
bd726788
be5c43ba
bdb81fa5
3cfd6c6a
bc2e6135
bcdb935e
3ebe0a16
be8ef401
396bd2da
3d776644
bc9e668c
bdc0ebf6
bd397faf
3c94b94d
becdefab
bd89332c
bc5a9ff1
3ecae0ed
3e368992
bcf764ed
3cc858f6
bd0bd529
be9178b1
bb4f91ed
bc439c5a
3e40a258
3c3c7875
bd80bfa0
bc5efa11
be1f712b
bd44d03f
be4d565b
be448cf9
3e9fdf7b
bee9462e
bdeb9025
bd6e79f2
bdfcff7e
bd3bf343
bdf05a5f
be8a1cd7
3bbc4de7
bd90b873
bd3d7db9
3d2ef81f
be081f8e
b987fb55
3d0f5f75
bd105631
3df18351
3c80e194
be3e6323
bcec0f71
bde8520e
3bf198c2
bdd6b9cf
bdc4af74
3cf5a86b
be08b3d4
be854b4b
bd9c56ce
bb9a8e10
bdbc0fcf
bc9c100b
3d9404c0
3cd3b7d8
be1b9bd9
3c52e454
bd8f3376
bd835ed5
bdcb44a5
3ded5115
3d5a34ca
bd15fe26
be9c3be3
be587cf8
3d976ef2
be9af5dd
3e5fe937
be95a9c8
3da25201
be254feb
bddd8367
bd816b2c
3cbeed6e
bc79804c
bd6f6969
bc1cd6ae
3e79f1ec
bd891d73
3d15ef0b
bd95cead
bd03a912
3ea9c6e8
bd5541e9
3eb6a3c2
bdc17c61
bcebbee0
bd983822
bed23be6
3ecb3192
bda0c58d
bd4c3e52
3da6a942
be42d942
bec679f4
bc8400cd
3e8f5da4
3e4c85cd
bce55328
bc845d35
be60c208
be0211ec
be168f43
bc3d3685
bd852e9f
3d85b561
bbfd1762
bda6add6
be45c6dd
3c8d2a4d
be56db41
3dbd7377
3cb2f8de
bcef69a9
bd1e1f21
3ea3906d
be8457f4
3c9bda19
bd18a5d9
3ccf289b
bd9d59f6
3a03cb01
3d4304b4
be4b9909
be0c9bd1
bd2baea1
3ec1224d
3e6aa8df
bda89499
bc98e377
bcbb33d8
be4c901f
bc8ab73d
bd6745d4
3d7ce51a
be2d5452
3d94c422
3e0b5712
3da2f825
3c4f9ee7
be643747
bd9c0692
3e88650f
bef3716d
bdaf5c72
bdf14579
bd865c8d
bc3f7ae1
bdbd3711
bc6d90b0
bd013906
bd41e10a
3c283138
bd387778
be08f2e8
bd3c0043
be900a76
3c7c4a57
bc2db63c
bdc4b810
bd671924
3d0c1213
be3b1801
3cc5b138
bde4a9de
3d6d7ee9
bd45ac2c
be2e3b0f
be5eda40
399fd259
bc82ee48
bdb6948c
bdd51f3d
3c91a959
be10e832
be2e34c5
bd7f97a9
bb7442f1
bdb9f0ed
be55d7d6
bdf3e047
bbd1ac88
b8dd7500
be71eb48
bcbece3b
be01bd8e
be5d3c3e
3e829754
be2c522a
3d42af0c
be76ceab
bdf0ff25
bd011bdf
3cea91ab
3c1cbdb0
3ce92eaf
bbecb62d
3ea4723d
bd71956b
3b1a6dfb
be6d090a
be10756a
3e7996f5
3d26562f
3e98ff14
be134643
bd7e5d54
bd42f1d5
befde5e1
3eb7f924
bda4fc8d
bdf6d8b2
3db3d27f
be18f6ce
bece8c03
3beb45e8
3ec50f10
3e1d6a77
bd818731
3abe0115
be07c3af
bd0a1e96
be21eb39
bd35b3e2
bd62a5a8
bdd5ead4
3c9ffeed
be4b0383
3cdf6aaa
bd16fc31
be0154f9
be2ee78c
bd5ad6f3
bdadd728
bd542570
3e9a511d
be04a6ef
bea03dab
3e1d1f95
baa378e0
bdb6f5eb
3d16f234
bc845aa1
be823ad2
bde48948
bcb99ed1
3eb1c33d
3de1cb12
bd0654a7
bd670f34
3c986b9f
bed5c5e2
bd13d0f5
bd5f8cfb
3d9df151
bdecdea0
3d9d6228
bc9a1653
beb19d79
3cf4dc2c
be532ffe
bdd075b8
3e44f196
beea50b1
be185c4a
be863f00
bcf55545
3cbc0466
3bc6ea46
be889597
3b2c8fc1
3c9f3cbe
bc62a10d
3e742ac8
be3177c2
3c6f29fa
be5d9b7b
bdcd219d
bc13bf15
bc944ea1
beac9bfe
3d03fbe8
be45823e
3a1e69de
be19ffc5
bd3c2670
3ca4f65d
be2130cf
bdb647d7
bd95865e
3d07ff3b
bcb6f363
bdab362f
bb9f6f39
bd97dda8
bd8d79c1
bbcfd6bf
bce3d885
bdc4adc5
be56daf2
bd717dab
bc4b2a8d
3bc48dec
bd692c8e
bdb1bb8a
be6c0c10
be5c310d
3e802dc2
bea50c31
bc80140d
bf07a1d2
bdd1d777
bdb512f0
bd549b3a
3ce6387f
be25d771
bcd14d46
3e232a0a
bdce1d01
3c487eb5
bdd7d4ae
bdad1505
3e477d4d
3cb5efb2
3e85cfdd
be79476a
bd96c63a
be101f4c
bed7d815
3e90ad2b
bdb1eea5
bdfca16e
3dc28df2
bd84e2aa
beafe6e3
bc1e5c85
3ea044ab
3ddfa881
3d9a7306
ba421624
bea4d3e7
bdeace9d
be245960
bcac0347
bd5856a8
3c91b7fc
bdaed4df
bc89b5a8
bd82546d
bd629f75
be81d753
be58a94e
bd4b1a91
3ced06a7
3cb043ec
3e4032f6
bdfb0755
bd8e4c93
3d7520e8
bca8dd83
bde583ae
3b144a0f
3c1c6a5e
be9cb24e
be289542
3d3dead5
3e81bd7a
3e0a3431
bdf1d901
3d129044
3c93fb4f
bf0be760
bcc6aa4f
bb204ddb
3d7907be
bd9d5b8a
bc1adf95
bdf77e74
bf0010f1
bd8ab705
bd9078da
3d442266
3eb599b2
becb45db
be319ca4
be040bdb
be240cc6
bdc424c9
3cd478cd
bc9181d8
3d8e0acc
3ceb806c
3daceef6
3dcbbd4d
bdbb5e39
bcb7bf23
be59720f
3d5319cf
be470cb8
bd551d59
be603b7a
bdb5fe0f
be2ec69a
bd502e1c
be1d5f63
3d9a2ce7
bc10e61b
be912077
3c910bf1
3aba9716
3c289e31
3c6a062b
bd500cc3
3c927ffa
bac134ee
be121201
bd951b53
3c3c95f0
bd03d3b2
be346071
bdb28a47
bbd948f5
bd0b2727
bdfe13bb
bde044ea
bf09a450
beb63b01
3e769873
bf05513c
3dfc60eb
bf0e965f
bd39bbc3
bce29763
bd904648
3d56b390
bdd4bd7f
3c3d79e5
3e9b968c
3ac23528
bd7093b9
bd98753d
bce9a27c
3e4481ca
bd4f3b7b
3e36f85d
be7d3c8c
3cd6630f
bdff4c0b
bf07d6d9
3eaa50d7
bd601c75
bd47ba5c
3e082d8f
bdcd35ea
bed74099
bcac3804
3e85bac9
3e78445c
bd6b80df
bd67c2a1
bd44ff4f
bd6bb049
bdc1eca8
be03143e
3bc80091
be05e7d0
bd3307d0
3cc28d9a
3e0e5aa1
bce26163
3c93e3a7
be85119a
bb14ee30
bc9a47fb
bce026b5
3e9863fb
bdaceb56
be412edc
3dc856f2
bd0701f6
bd3f764f
bd16bce3
bd554561
be81a449
bc968fa3
bcc9dcb3
3e81cb3f
3e590b27
bd6db756
bd200141
bd9f5c8f
bedd2cc2
bd116a10
3ca76413
3d407590
bda2dc35
be186976
bc456adc
bdfc54e8
bc095725
be16332f
3b6d46c6
3e9b2e5c
bed9be66
be00cda5
be85c9cb
bd269104
bc10aae5
bd28217f
bdc8ebd7
3d93348b
3d7d3940
3da2abb5
3da8bb23
bd46208c
bb7cc65c
be208546
bdeff613
bd41199e
bd4487e0
be02eef7
bbd06135
be49e156
bd5b564f
be25b28f
3dbcfba1
bce3caf6
be07710d
be16e59c
bd673202
bda5ed38
bdd74097
bdd320d5
bdbfc03e
3c11dfbb
bdce1719
3e08bfd1
bc0407b7
3c5d36a6
bdcafbcf
bcd7e8b0
bc2c2c74
3cf10ec8
3c2e2e85
be05325f
be3d960b
be318d67
3e5b3085
bd6fc321
3d84832e
bea74122
bde3a80b
bdab4940
bd2fcbb9
3cd31413
bd8c81c0
3de983cd
3ee029ed
bd9d29ff
bd08c8fc
bd3a977f
bd46f5ae
3e7eaae1
3c821d9b
3eaa94b3
be0585bc
be13c103
bd6c142b
bed59cd3
3e96daf0
bd870689
be51cfff
3dd1b364
bd88cf75
beb0b11c
3d280aec
3e8484dd
3e95dbc9
3d4a0c58
3d00fbec
be04f45a
bda61955
be315547
bda880a4
be4232cf
3c88fce5
3d933f92
bd9a62ef
bdc4629b
bc334c5d
bd5a5b15
be1adefa
3d50a3ed
bc129e24
bd354d4f
3e9cf301
be3697c0
be3a11f9
bc3f7586
bcc9c8cf
bd1b7de4
bd3eedae
bcdb16f6
be8e3c08
bdc00ac5
3d4e204c
3ec43699
3dc10213
bd375b41
bc149ea3
3b2d4308
be674e9c
bd94e40b
bd90ee45
3e6cca94
bde54a24
bc306e1f
3b79b826
be7dc773
bd537947
bd6f28cd
3c23cb20
3ea5b2b4
bed654d0
bdcd8872
beb0ab16
bb06fee7
bc8989b8
bea2c4df
be8d7aff
bd2a2278
3cd601b1
3c7cce91
3d8bbd90
be09dded
bd3b6928
be68e931
bc12d72b
3e2d6983
3beb6160
beae1afc
3c6cb2e5
be6bda90
bcf88ab9
bde3f086
3c520f06
bd7f83cf
be3cef5c
beb1d54c
bd5a2c91
3d16318d
3d154492
3e0041b2
3d051863
be5bdbbc
3aaf5a36
3d4b455f
bcb9d2eb
3d58e91a
be945968
bcf59159
3d2c4ee8
bba279b3
be581490
bde2620c
bed61c4c
be733cbb
3e9905a4
beae36d8
bb869501
be92a401
bc4c51c4
bd8becff
bd472d35
3d3fc40b
3d0c6536
3d9e1a1c
3e9061f9
3d9a1ca0
3ce3042a
be2c7e97
bc6739ea
3e6d9aa2
bce3a5a5
3eba50de
bebe06ba
be44c7a1
be04b7b6
beeb9199
3eceb0af
bb957827
be03da56
3e2617cf
be7460fd
befa1126
bc1f0b51
3ee8957a
3e0b019b
3cefbf05
bcdfbe6a
be0de839
bd8336c4
be9bf0be
bd8cd3ba
bd443641
3dd1a417
bd0e987a
bd04f4c0
bd59112e
bd8eed44
be779aae
beb77108
bcb948ad
bc79c5f8
bd02951b
3ef47fb3
bea546cf
bed66dd6
3cbe879c
bc6adc96
bd130f88
3d3002c3
bd22b9cf
befda831
be2647d6
bc29edb9
3eaab09f
3dc52c55
bda14cc6
bce23815
bd32ee2c
be671691
bda3a8eb
3c7dfbf0
3e159692
be1aef12
be1eded9
3de7f51d
bcc057df
bd4622cc
3d9c09b0
3cb6d216
3dfcb1d2
be97d80a
bd4f8d60
be812956
be57e7e1
bcf60ca6
beaf339d
be24c389
3cb9c1f4
3cbc83ec
3d96747d
3d43da5b
be9182e0
3c180af0
be05ea9b
bdd76f5b
3e81246c
3d19d49c
be15e874
bca30b32
bdb8f6ab
3b6a0064
3cad346a
3c5b4fde
3d193deb
be8002e4
be0076a0
bc69ae3d
3d55c805
3c26ada7
bb9db80b
bc820d71
bd900c70
be188893
3c6244b5
bcde693b
bcbd8830
be64d35d
3dd96b61
bd57ef4e
3d15637b
bd4c1aa7
bde4b0d5
bd7b4df7
beb83ab9
3e48a990
be3bc246
3bef77c4
befe6f64
bd96513e
bcb092c4
bd6b9d10
3de29316
3db4c8b1
3ba9e4b2
3e208529
be35b9d4
bcd2b383
bde90a2c
3d147b9a
3e9331d5
bcfe5fe2
3ea53858
be6a045e
bd9208c9
bddcec11
beca4eeb
3ea696bb
bda6fd3b
bdd52687
3bc10394
bd7a72b3
bee2f41d
3d29e643
3e98da03
3e87f2c3
3d9f489c
bce6da21
bdb76e16
bc9383b9
be5607fb
be3d721e
bdb6c536
bdcec919
3cce7f50
bc88da01
bdc23e1f
3ca354de
3b0378f4
be4ba37b
3d04df0c
3d1e8afc
3d512802
3ec5a915
bdf41a57
bdcb34b3
3dfc485d
3ce8bf0a
3c2d4104
bd01ebed
3b892ba2
be9685f5
be4dd6e2
bd807150
3e8e61b9
3d9e09cb
bd89c1f4
3a664c49
3cfdac33
bd51d73d
3d17bbd6
3b84ee5c
3da48892
be33ec42
bab828e3
3d939bbe
be03ebb7
3d2e4fa1
be07de99
3da4927f
3e42b25f
bea363d6
bda83094
be201022
bb8803e4
bd9fce55
be14e94e
beaa0395
3d93a587
3d1c0eb4
bd8b99b5
3c30136c
bd997f40
bd3934d8
bd41035e
bdf252df
3e010e42
bd1c822a
3cfd1d92
bd23b4da
be69729a
bc56c5d0
be0ad29f
3e200f0e
3cac064b
be9d89ae
be52daa1
bcfb7706
be1a5723
3d991c1e
bd59c1e4
3d4857de
be296457
3c48d383
3e0f8f19
bd08d7d7
bca4ec46
be13e1a1
3dadcfec
bd1cb368
3bf5c50a
be592d78
3da4d11b
be7d80ee
bea000b4
3eaaf85f
be5ef1dc
3d6d9da4
be083150
bdbacb78
bd88f893
3ce44b88
3b21ac35
3c13f8f9
bd6c9f44
3e3a7ea8
bd753751
bd854882
bde0a786
3caae7c8
3ea4e917
bd309204
3eb5335f
bdf2be0d
be434698
be4f27c2
becf2f8b
3ecdf71f
bcbc5c44
be25fb13
3c0a7d08
be59105e
befb0a0e
3cd3c502
3ea66d28
3de2ee3d
3c105a25
bd447ea9
be1e8fad
be01446d
be2834b9
bdc7af02
be4877f7
bccdf24e
bd7c1e5c
be21a6ac
be0f68cd
3cb36b5b
be6b0726
be1fe384
bcc3705e
3cfb0717
bd5521d2
3e707cd6
be36fda7
bd267511
bd5bbb6c
bc92e3b2
bd3e97eb
bcdee364
bd07b2ec
3ea85ad7
be907d5b
3b5d0f0d
bbb79147
be1c98a7
bc173151
3d3d46f8
be0a26ba
3e1c5551
3ab1c9f4
bcda90c1
bd2a4bcb
bc33b2b9
bd2e257a
bd3eec37
3cf9755e
3cdcb533
3d9c7ee3
bd0c57ed
bd14e99c
3e0daef4
3c7d5976
be3f2aa8
be6d67bd
bce2f831
3d097fa0
be8153dd
bea79bd9
3c3df4a0
bea96b7d
3de337c4
bd2e7495
bd18229f
be43b378
3e011abf
3dee39c4
3cf6a493
bd3dd772
bc895bb1
bda2abda
3d2811cb
bdad33c9
bd80a683
3c8ecc52
3e6d2d43
3e274d28
bda0247b
3cf82c8b
3d019bd8
3e220335
3c899b91
be901385
be3d518f
be150646
bd5eacb2
bd8fc764
be197d85
3d857714
bc7cbfba
bd2ac127
be9d2523
bdd44036
3d281001
3e80abf5
be009882
3d9c9289
bd5cccb3
bd028d1d
3d85a691
bc65ee88
bce8b08f
3dc01802
be718d7f
be16bf4b
be9446e4
be6fe089
3d430f4e
3e333117
be61d03b
bd548c9e
3cee6281
be324970
bd153034
3deebc18
be92fb27
3df78c05
bdf896f7
bd3418fa
3e683a6d
be416a86
bd8d07f2
3dc68946
bd418993
be766f5e
be7c98a2
be8d99b2
bc8458c2
3e8612a7
be15368a
bdb99d63
3d3ca592
3dd61c26
be1c03ca
bbf9763f
bda1c27c
bc370860
3bd941f8
beade460
bce341e0
3c4b542e
bcb312a3
bcd9a558
bdce7e55
bdc00b2a
be54606c
3e3fdeaa
bd14691e
bdfcd0b4
3d3b248c
3c9caee5
3eae9384
be37007f
bc8913e5
be00cf42
be9c8637
bd40fc25
bd680033
bd287a36
3dbdbb8e
bc9b9324
3d04c094
be1a0a4c
3b7d3ee9
3c974042
bde4d194
be9c8f1e
bc081b2a
bdf28747
3db2c32f
be6a0bea
3c3a7d50
bb75b5d1
3b55e388
be2b9cae
3c6b8739
3c2940ac
bf2ce5fb
bea58553
bc2b9c30
be2ecfc9
3e6d8a5b
3d22ffa0
bd0a7106
bdda7fd2
bc05ae90
3d76c4c2
bd175202
3dceb5fc
bc3dbc9f
bdd8b530
bd0b6f7a
bcdd9580
be39631e
bc9d0cd2
3e03de03
bda2278c
bd5380f8
3d52992e
3de54283
3e6d069d
3d2d9b98
bea8fdec
bd976979
be3867a6
3d2c19d2
bd6ae2d7
be26ea10
bd3a703a
3c9435ec
3c72ce46
bef0ffbb
bcc9db58
3da2e616
3e4d0e5e
be131192
3e0a6f0f
bca9fd61
bc00f246
bc67c9ae
bd4d5489
3d371a72
bdfb76d8
bdba93e4
bda722be
bb2a9f87
bbeeadf0
3d4deb4f
3d92f888
bda21f5f
bd9145c6
bc39a022
bdd21987
bdfc017c
3e16a2b3
bd60736e
3d2acaeb
bdcbcbdc
bc86c465
3dc540f9
be0d2fe3
bda31bd4
3d4426a8
3d124819
bde17986
bdf3d742
be6ae670
bd6e5f7a
3d970323
3d54f478
be570240
3e0ec67c
3d687ac7
3b972b7d
3d15f342
bde8c2f7
bc8c0126
bd55f592
be07e824
bda23bc0
bc33290d
bd4300a4
bdb45da0
be4752f3
bd34605d
be0ed3f0
3e5a0ea6
bd490d43
bd8dd087
bc7cec4c
bd2db75a
3e4871fa
bd8896e6
bcde949b
be04b7be
be0fe660
bdd47922
bd2978d2
3ca59a05
bd8ea325
3cffb63f
bc8d1bba
be51d17c
bdb77eb4
bd750c2d
bd9fa0a8
be332d32
bd49ddaf
be1751f2
3e4a16fe
be40cf32
3e60d814
bd92661e
be3a861a
be6efbf1
bd5d322d
3d002c7d
bf06e080
be942e49
bccbeb75
bdc9e27b
3e427c1b
be5230df
bd8b3f94
be254cf5
3e87c830
be2f8d92
bd80347c
be9253c4
bbfb3058
3a346d48
3c723371
bd99846e
be23870f
3d34b3f0
3e364723
bcba070d
bd86c459
3cb6ff41
3e24d50a
3e336be2
bc8d1150
be8bceea
bdef6302
be9a870e
3d20f2d7
bd4acd15
bc1b2f3f
bda8d740
bc2701a4
b9c75dd0
bed78b0b
bd3fae19
3d63ff41
3e134229
be266580
be90b412
bd919081
bdb7db7c
bcb3232c
bdc34ee7
3c764003
3d39dcd1
be5920fe
bc9168f8
be5674d9
3dce450f
bd8044af
3e5c822e
be0c2147
be3f551e
3c8ec457
be1014c7
be24835e
3e161267
be1e4eb5
3e2500e1
be6c3557
bdc8f9cb
3dc31b90
bd5ec48f
bda283d1
3e079f0d
bd47e12a
be8c1b57
be7b3646
be800f18
bc898a5d
3e6bd5b9
be23dda0
be866dff
3e05bcbf
3e45f017
3c6426ef
bb804fe6
be0fbdfb
bdc2de1b
3c86765f
be12cb72
bc48fdac
3c872bd2
bd21e527
bd001827
be30a511
3c539c8c
bd6dad49
3d930394
3c289943
be4e99f9
3d0098e3
3ca7a4e5
3eb4ec29
bf002b36
bce808ca
be80c9b6
bd835208
3d6217e9
3c680296
3da69f5e
3e134296
3ce667e0
3d005269
bea6e43e
bc750cf2
3d95c72e
3da80f54
beb6acd3
3caf9800
bd0882c6
3e50508c
be3a3f29
3dc82ef0
be6721a5
bd3b607c
bcde4ac6
bc0db311
be57aa3c
bf3d7a0d
be105096
3c1ded87
bd203e80
3e35fcb9
be808f34
bcbde44e
3d000c68
3cd79dd6
be83f5e9
3cfb67b1
bda2cadd
bd154bb1
be53aada
3cde3f1f
be366d00
3e1aba02
bd03650f
3e09c5e1
bea97ce7
bd6d1bc3
bbaa19ba
3e684df2
bd63ea4c
bd07cebb
be9528cb
3c870fd6
bdedc0f9
3c3fae1e
bcaaf090
bea00f5d
3ca41775
3d260502
3ce86577
becff5e5
be563f7f
3df3df37
3e326e2a
be908e2e
beabad64
3da260fe
be61bda4
bddfcc72
bd0256e6
3d1492c4
bdcb14a9
bec84509
3e11f4cc
be135847
bd1a00f6
bd47c447
3cae7512
39ef64a0
be312356
bd81d139
be382e14
3c96a0be
3be0a34b
bdc8c378
3de5eb1a
be980365
bd23a42c
3d6b17de
bd292500
bd80b73f
3dfb1c0a
bcde9137
be865ba6
be3a9cf7
be29a65e
3bb8ce9d
3e64633e
bd9db32c
bd248c49
3cfbbf4d
3da5d7dd
3d296318
bcd77860
bde53404
be530b51
bbf858f8
be260cf5
be510826
bd2a48b9
bd9a79c9
3c7c6406
be6683f9
be0653c5
bb8b7e3d
3bd8436c
bce23ad1
bd1481ac
b91a873a
bd1d6b22
3eaef127
bef50e9f
3c4cccb4
bd86f39c
be3a1640
bd11bdfc
bd016a24
3dfeaa31
bd9d22e2
bd0d555e
bd5fc688
be123c3c
3b1af3ea
3da20f31
3dca9502
becda834
bd6aa7fe
3d030b73
3d20cd86
bdcc7324
3e51867c
bdb3cdca
be3e3171
bdf119ed
bd927e80
be2cf4ca
bf6963b2
be031646
3bfecd1e
bb248cb8
3e2800eb
be3d0bcb
3d3e7fcd
be1467e2
bcf5b853
bea2aa10
bd2d7a0d
bdd8afb7
bac7d744
be2322b4
bd4a58d6
be2049ea
3df52c23
3ca9128d
3dee478f
be520a87
3c834925
bd1e5777
3e1b3330
be3019a5
3d754050
bee926d6
bd122f87
be352c04
3c2e6d91
bd81c64c
be856971
bd2dc78e
bd7c63ca
3cc8ca19
beb5c125
bea83fff
bd8973e0
3dbe3416
be8a2799
be1657e8
3c92349b
be0eb1e6
bd0e49b3
3c61dfd9
3c361d77
be7274ef
bea8d9da
3e4d2b86
3c6aa742
bccf1795
bd800225
3b656292
3ccd1078
be13bdd1
bd525f27
bde66a15
bdbd5dd3
3d59d8fc
3e24e530
3daf3a65
be8e99af
bddb9a38
3e1736dd
bdc84fd9
be16db05
3dd44544
3b503663
be60c8eb
bd0dde27
be5c6a07
bd0402b8
3e4154d0
bd1c2c09
bd5c6b00
3d7b3d11
3db2abaf
3e4f11eb
3d1674eb
be2cea34
be58a159
bc8e5454
be5962f4
be1e739c
3d4757da
3cdcfd2d
bd2eb215
be78fe8b
bd8283a0
be302ba0
3e0b08aa
3c56b1e7
39d62cf1
3c636f6f
bd2c78e4
3d13af54
beefdfdb
3d03cdf7
bd3bba26
be7ef28a
bd542f1d
3cda2b1f
3d3ef418
3e8200f7
3c042284
bd89313d
be8f77eb
3d49cb90
bdb46290
3c200600
bddcb696
bc9b10d0
bc7a27f5
3e38955a
bdeca0e5
3e79a1d1
bdbaf789
be39defb
bd4b5046
bbf91c84
be15d09d
bf39103e
be6f600e
3cd619d3
be15747c
3db15b19
be3af47f
bb7bc469
bcd33774
3d6ac594
bead83ed
bd5dde4a
3d489111
3ce19e2f
bd4e2cd0
bd3e060a
3ddd5ae2
bdb65317
3c6568b9
3e18c81b
bcbf0312
bcccea32
3d869254
3d30d43c
3e105580
bce4795a
bec6d908
bdac125c
be85cb09
bb056c20
3cbc5c39
be93304d
3d2c463d
bc682de5
bd6a43de
bf1a3d20
bccd56a8
3d3b7640
3e59a39c
beac88b7
be1c8357
bd7a56e9
bead95d4
bb4d6cbd
bd6f6a9b
3c464a33
be08a3c5
bcb7c00c
3d46d103
be07545f
bddf0b79
bd64fe6b
3d83d954
bd9d6639
bdc383ea
3ccd5e6c
3d105cd2
bd7a9806
3da3808c
3c8cd701
3e2ed4bf
bea7a084
bdd8fa3b
3dff8558
bd0d4215
be281ec8
3e447bca
bd4aac10
be072fdc
be5f3843
be126227
bd715fee
3e3ad000
be7e214e
3d0956a9
3df5beaa
3e33c7f1
bd900f18
bd41e8f4
bd16bd18
be1bac6d
3ce8d97d
bccc1cf7
bda60035
bd53930c
3cad6e41
bc878185
be7aaedc
be1e702e
bd59223e
3d13c2d7
3ba40626
bc7b96e2
3d3c0f42
bb39f2a2
3e25ef28
bec24efd
bcb63c36
be448471
be46e916
bd332404
bce369ee
b83c54cd
3e0cffbb
3d526841
bd2b5739
be8e8d21
bd1a84c0
bcb185a2
bd7991a5
3b03048c
bce4e375
bb35f3ff
3dd4381b
be4bd48d
3e4edfb3
bc99fd5a
bd39e83f
bd6c2bde
3c776b06
bead9548
bf13d1ae
be0a6691
3c2ac72f
be3bfbd6
bc87924f
be7a0f23
3d20efc1
bd6f91b5
3c036b8c
3d2d7c23
bd9ab510
bde60113
3c87733b
bcd95cf3
3d5dd2d7
bd86722b
3d72e4ae
3b47a7b8
3e4e677a
be1c9add
3ce7beed
bb6e4524
3d139cd0
3d9c5f93
bd6407c3
beae9496
be2af8bf
3db1f410
bd824027
bd4dc61f
be4a32e5
bce77ce9
bcabac70
bd7dc917
be785e31
be9746f4
3bc4e66c
3e6ccdec
be3785b5
3e5d3f96
3d80ecf0
3e237668
bd18aee5
3cfe451e
3d507b96
bde3dcb5
be305f33
bd16ddba
be79f0c0
3d5830ec
bd5d3476
3d0a0ce2
be6a0a1b
be96b584
3d499f04
be57761a
beae225a
bc82ec4a
bd511959
3e91ba35
be6efb77
bcdad8a4
3e0341be
be3b0672
be10ca02
3e60d2d7
bd7af5d5
be8d40a8
be88a5aa
be44f80a
bd4f8d21
3dcef918
bd912e06
be0fbc3f
3dc9bec3
3d57598f
babe6145
bd6e811c
bd7b2f97
bec9e252
3b5d202f
bdc84c99
bea771b8
bcb0f71c
3bf9813f
bb1741ef
becb7649
be3868fc
bd44ec04
bcaca1b4
3d0d8d8e
3d73f0b8
bd3a9c6b
3c7cf07d
3e9fdcc9
be8902e4
bd475f8e
be340100
be0c389b
bdb93d18
3ba97b50
bd04284c
3e1e9ba8
bd68f2c4
bd389d15
becfdb3d
bd4514d0
bd92f3bf
bd7c80cd
3d03a0ef
bd37e805
be2ca3b7
3e2a42a2
bea24203
3ea8d556
be33af78
bd59903a
be2235ba
3cd37928
3dd99379
bea92fcb
bd3d762d
3d1e0584
3ca9fc13
3e4fa881
be72e390
bd3649ed
be62a100
3d1b16e5
bcb24c9f
3ceb3bf6
bdc627e1
bb330e8c
3dbad10d
3ce51811
bd3e6f50
3d76e7eb
bd1bd00c
3eb31ff9
be13240f
bcef2043
be3172cd
3de2c6de
bb92985e
3c9a59c3
bd88685c
3e4c781b
be9b5e44
3d0c0542
3bef3cb7
bdbfadb6
bda04301
3d05545a
3c40849d
bdc24305
bdbf46dc
be0840be
3eadc63a
be8bd48d
3d863388
bd821730
bd8eff27
bd68af63
bd3979e1
3cfea1eb
bdf7a0bc
bc126c59
3e1deb9d
bea55b88
3d3a7cb7
3cde57b7
be0b8069
3d883b56
be838660
bbc2562a
be99293c
bea6b77e
3dee2621
3a6171d3
3e8145d6
bed7a6d2
3bbb704e
3e0384ec
be2387b3
3c8e0fba
3e8c5d59
bd72bb76
be47f1d2
be7bed3c
be9d6711
3d09b765
3e3ff5c1
be9a51c0
bce5f5ec
bd3f9c2e
3d23b33a
3e03dda9
bd583e58
3ce432a9
be675062
bc6ca16e
bd73f2a9
bf0a0673
3d290257
3c6035a3
bc680800
bea5b3cd
3e51f3dc
bec13001
3d49604b
bd3523e0
bbaaf510
3cd6d4e2
3b507cc5
3e3936cc
be015360
bc8493e0
be0d94dc
be5db20c
bcb2f0a1
bc403513
bd8869ed
3df8eb23
3d8d42a1
bd5c5964
beaa69b5
bd4782f0
bd89f8e4
3d8a639f
be34026c
bd7b6946
be635b65
3e38a7d2
beac0642
3e3fa075
3d96438a
be13ddf8
be36d8b3
bb95dcd4
be9a4c1d
bf1763ad
be6d2fbf
3bc17ed6
bdd976b1
3d876941
be9b281f
3d089310
be9914b5
3d93cb01
be15b2dc
3cfbb12a
be3e4fd1
3cc008e8
bdf88012
bca97033
be703d66
bd53466b
3cbc2e18
3e431f1a
bd2d171c
bd42124d
3e270b92
3dd6be1e
3dad63c6
3c957369
bda09e6f
bdf657b8
be3aa022
3d0e81d5
3c8846c0
3b8b133d
bda49068
3cde558f
3c39b962
bec3a277
be2a6ab0
beb67a67
3e8de03d
bec02367
be0906a8
be2dce72
bdeeb189
bc12ba9c
bc1906f2
bd7fedaa
bdd07517
bd568f9d
bc404fea
be61e18f
bd7b03bd
bd837128
bc6f13b3
be3bfb24
bdec4694
bc5b6d31
be5dcd74
be2857bf
bd149f8b
be1f5c1f
3ec28db8
bed1f181
bdbba51f
3dc7be46
bdfdd083
3ceec79d
3db1f6cb
bd3bb66d
be15171e
bdaf9a08
bdfc03ab
bd561885
3dbbaba8
be555360
be95394d
be547a91
3d3e510f
bd7125d1
bca69b6c
3b4f9f09
beb4ed29
bcfbca11
bd2ce96e
be8c2495
3cb08861
3ca264b7
bc04a0d8
bec184d4
bd0776a0
be881ea4
bd9e5e7f
3c159bae
3e08263b
3cb37dd7
bb9c1142
3e81636e
3dc18f28
3c887ad8
3d8c7e35
3d55896c
bdd6bf41
bd17ddbf
3e45f857
be8943a0
3c987c50
bd82ad9f
3c727bea
3dec31c6
3dfacccf
3e3c4b07
3c63cb04
bd4d75aa
be5359ea
be11ff4e
be463da3
3c73e07e
3e49b763
bcf816f7
3e3063c6
bcaa1b78
3d367992
3d3741da
3e096245
3c943744
3dfed8e5
be06808c
3e1192a8
3c80592d
bca8554b
bdcf0727
ba21efdf
bd104532
bd9ddac9
ba993f1d
bdcca8fa
bd72b9fe
bd7602a6
3e7071ab
bd233953
bc265691
3d9576d8
3d1ea271
bdf159b6
bd263a22
bdd08c94
3d7965cf
bda2eb57
3e08e5df
be5611d2
bc5d69b1
3b318541
bd0c892d
bd076d3f
3d27b144
bc19ac65
be57607a
bdb6b587
3b6ef63e
3e2a92ee
bd99df13
beab7be2
3c9b0973
becad43b
3d70c838
bd00fcbf
bc86f5d2
be679505
be873d4f
3e1fb4ff
be4b094d
3e7c2312
bd1c9859
be86b811
3e06ef23
bd9d9115
bd0ff265
be11ff7d
bcc04dfc
be8a99ab
bd507386
3e069d6e
be573d17
bd666238
bd09959e
3e70a137
be622529
ba6fa82b
bdbb76a6
bdd3d5cb
3d18ae6e
3dc8cacb
bd26b6be
be2e52fc
3debc76f
3c79ea07
be31cc0b
be282f5c
3e25fb34
bd28fa7a
3ceb6bf6
3cbb77fe
bc5b7c4a
3dd64bb4
bd3a7900
bc6ecc83
bcc089b4
bd13fd0e
be33efa8
bdb81f43
bc451432
bde24bbb
bd83e772
3de4c023
bc732a11
3abdb12f
3e4e3412
bd7c058e
bca8e644
bdd7b7e0
3e53ecc2
bd09982f
bd264b5f
3e921f91
beae3345
bd38d74a
3cd5aa5d
be098e7b
3e15efdf
3d87dc36
3e1dfd5e
bde11817
3bdb7ed0
bc9965cd
be1ea121
bda14757
3e155224
3e1da63f
bd9a6f40
3e294cb6
bda55092
3e261852
be0f01e7
3e90b095
3d4b2b95
3e9a26b2
bd101202
3e2406b1
bc99be9d
be509218
be59814e
3d7c568b
3b474643
3d120682
3d37cee6
bda365fd
bd15f3f3
3c85984e
3da8be4b
3c2c70d3
bdf54bb6
3d9c0184
bd917c2d
be1ddb6a
be2accf1
bc2114d4
bc92203d
3c7a7f21
3e09bbb3
be9c5b35
3baad6d7
bcc4bf6d
3c5a8aef
bc5dd35b
3cde3d29
bd89e58d
bd807560
3e23de38
bd74e2b5
3de3ed27
be35fcae
bedffb6d
3e52adc2
be19b120
bddad6cb
bce7a388
3d751691
be7e66fa
be8efc7a
3e1afec9
ba87d617
3e116c3f
bd176d73
be7022fd
3d977f80
bda70ad5
bcd8beb0
bd89ff25
3d8a1700
be0e8ad1
be54c3e1
bd44c8d0
be27a9ad
bd56faec
be0fdc90
3ebb498d
3c574f52
3e7cad21
bb34cc54
bddd12c6
bc812226
3d7ee938
bcb8f1c8
be022ab2
3e169109
bdc7e553
bdc79e74
be15dc4a
3e838183
bdd14c74
3d94cb8e
3e841127
3c3b478e
3e65df84
3cccfc31
bd82919f
bcf190d4
bd279bb3
3d5b2b9b
3b865879
bdce5eb3
bd7a1b50
bd373f1b
3e4e5a4b
bd67f28e
bce9c4a4
3eb37a7c
bce9cbfc
bd297e20
bdb39ee8
3e4f771c
bd433f78
3b0fa13d
3e85e3b4
bee22e60
3d67cdae
bc14cd32
3cc171dc
3e88de2c
3d4b696c
3e70a753
3ca64cac
bd3706f6
bcda511b
bd2d4efd
3d730cb7
3e193a4d
3e8f5ac7
bcbc4383
3e4512c0
bd7fc78b
3e468499
be35c4b9
3e323506
3c879cab
3dc37942
bd7f02a6
3e690e58
bc9139cc
bc8b201b
bdac45ba
3e49bf06
3d705677
3d6573a9
3d03dd73
bd8ac58e
bb4d9b0d
3e6fa526
3e0f8b54
bc661bc9
3dc24696
3e077f85
bdc22bd3
be25dcf2
bcd3cc3b
bd8ff54b
bb53eccb
be4c6d96
3c39eb6c
3d44686f
3d148bd0
3d087fef
3d761736
bd4f038d
3bd649ca
bd6c27fa
3cdb05e8
bd7c2732
bcddd410
3e5038ec
be11b6e5
becd50da
3e575a8b
be203236
bca1d306
bdd6789d
bd6c5b05
bdc53b09
be88ba6a
3e34b882
3e05da94
3e8622d6
bcedca83
be37183b
3e797f83
bd9de8f1
b9406b4f
be474b8a
3d0f73b0
be32e780
bd1943a0
3cefc1e2
be5bd6e8
bdb4e1ac
be1abab3
3e7e118b
3d205c1a
3dbfd2df
3cb4084d
3d7608a0
3debb4e6
3e5f46db
3c44d08e
bae49a1f
3e96f0d1
3a7e934b
bd8ec70e
be2c8395
3e912490
bd8a30b3
3e0463b5
3e8e7853
bd796a72
3d3b02c1
3c4d6d19
3d290d3e
bbe10bef
3ce16eed
bcd8f48c
bdec8130
bd830bcf
be3de76b
3d8f37cc
bccc0ea2
bc6e1f30
bda20163
3b5b638b
3da01050
3c8b598c
3c8eca58
3e1ab2f5
bdf71688
3d31db54
3e76b52a
be2537ca
bd9e3966
bd9c0326
be4e1103
3dcf158f
3da6fbca
3e06986a
be2d66ed
bb8d0561
be34098f
be57e893
bd647db0
3e46487e
3dca4d42
bdbd0889
3e6747ab
bd5c1d6a
3e4b762c
3dd76a51
3e6e1128
bca1e27f
3e83aa4d
bb1eeb57
be126508
bd738c26
beaf6deb
be4c6311
3d91d279
bc7f7d72
bdbd5815
bc793567
be34edde
bd805340
bda874a4
3db981f0
bd067410
be19fda8
3d88fe3e
3cc5e4b0
be148188
beae380c
be5c55ce
3c4644b9
3db28337
3da62323
bdd6d3e4
bd072cb8
bdb620c1
bd7e4e98
bd1f66bf
3d17d6f1
bc9dbc7b
be859277
bdf57cdf
3b9eb24f
bd3f44ce
be352da9
bea6c5cd
3e11c16a
be6cedaf
bd5a3e10
bdd6e7f8
bd081328
be1e0866
be9bbd86
3e66c3ad
3e8d06a7
3e67f5b8
bd857706
be0e4932
3e12020a
3bee594d
bc6ceaa4
3dd4a374
be5f96eb
be4a02f8
be98423d
3cde788d
be48a169
bd88de62
be892b03
3e9b7bb3
be8949dc
3c26e0cd
bdc9c9a2
bd6ae1ba
3e25921d
3e3762aa
bca8cdb5
bebba87a
3e145c0c
bdb6e671
bec5e28f
be15b8c5
3e7b406e
bccbdab2
3d536e04
3df18d6f
bd989036
3dc65366
bdbc4871
bd4ecc52
bd261e74
bd522a9f
be21e63f
be640036
3ca8f604
3b23b316
3c75765d
bda5d835
3c97371f
bcc55532
bb9317e5
bd84005c
bc647155
3d3b006b
3e508023
bdca265f
3ceda7ff
3e96fad5
beb6c7f5
bcec3c38
3c9bc2d3
be25a0cd
3d30e440
3d7fdee8
3de362ca
be4a4dc8
3cd4b1a5
3d6a10d8
bd0e2a83
be197ae2
3e35a65e
bda4fd22
bdad82b1
3df71287
bd9e4d94
3e1b79f4
3dcb0c58
3e65d63b
bce17d94
3d2e2657
bdb87a62
bd0dae6e
3cdc57f7
bdabc7d8
be656e6d
3c11e04f
bdd9c637
bd1af2ee
3c5f2265
bda788a7
bd3a44b0
bc86e07d
3e3089b5
bd6287fc
be8ee4f4
bc3ff31a
bd7ea71a
be0fa6ae
bd8e76ff
be72dccc
bd5e9e64
3d9a2c7b
3d8d5f2b
be1f52b3
3d26b000
bcdb68c7
be4ade2a
bdb00866
bd1428cc
bd3479b8
3d18ed2e
bc3c8501
bd9d4c1c
bcb211fb
be6bf2b9
beaa4578
3e06c094
be696e38
bcf62d7e
bc993fb7
3d1013d0
be61f4fc
beab209c
3e3ac10d
3dea511e
3e622749
3c90fec6
bdd8890d
3d40fbd3
3da55c0e
bd8595fe
3d993e0f
be7b8b3c
be7cec04
be99626b
be17e181
bea9f726
bc4d0502
be17c734
3eabc57c
be82c835
3d767b50
bd1e40da
3dd9f9cd
3e1f8463
3e894c67
3d208de4
be9068bb
3e74912b
bd227324
be8c1967
be9d85b8
3e80b021
bdff3dcd
bcef4fa6
3e092362
bdabcf48
3c9f69af
be1a770e
3a372f0b
bd55f085
bdc10b91
bc9439f8
bd8654b6
bda700dc
bdfddb5c
3c5785f0
3c88b8f2
bd5a6d8b
bc9273e8
3c8caafd
3d72eb8d
bc9229bd
be052272
3e0df206
bd8b1ae7
bd43b428
3e85ce93
be704686
bd766660
bd907373
be5033a8
3e1a5e1d
3c0c64d0
3d8d9542
3b994514
baf817e6
bd39c2f7
bd1c8d1b
bda3b710
3e21de19
3e26c65d
be49f0c3
3e3f72b6
bc9765cd
3e757659
be4fbdf6
3e6e5248
bdac1cd6
3e810f47
3b93023a
3d32b84d
3c0218dd
be5bad36
be4ab533
bd710479
bd4c3e44
bd601a25
bca5f50f
39c652c2
bcd6c64c
3c2f2b04
3d7e0ed4
bd914b83
bcda38e3
3d660161
bc10c027
be36613c
bda53735
be822844
bc9317fb
bd158bef
bc059615
bea52e93
bd4f0a59
bc81a663
be04503c
bdc22f57
3c46d771
bd76ace0
be192c86
bd869f32
bd7133ad
bc82311f
be840401
be9f49e1
3defbb0c
bdc5be0e
bdfa0449
bd640643
bd119821
be36f9dc
bd22224f
3ca4dadf
bd5ed74c
3e1c436a
3d492889
be237a20
3e4536e4
3d2b28cb
3d16ad03
3d1cffe1
be26d0f2
be28d075
bde1cd56
bc0627bc
be61960c
bd0a13f6
bddc24a6
3e6f7c5e
be19bdfb
3d6620a0
bd5544b9
bd965592
3dcbbd74
3e66780c
bcfb6442
bced8d87
3dfbd0e1
3cb13fa8
be821ab5
bde94b32
3e8e1f42
bcf58e47
3d898f3c
3e760a91
bbab3c98
3e4c0c9a
be2daf70
bb1e6e58
bda91d83
bd7f58ae
be3b1e06
be16352b
be2f21b7
3cd695dc
3d12e0bd
3d633a03
3d1cc482
bc51d2de
bd01bb86
bcc0d553
bd7bd78b
3e1f40de
be17e0e3
bd47646f
bd0d98fa
3da072e7
3cc5411e
bc8aae42
3d4f53c5
be70f7f2
3e350e62
3dc9401b
bdd3ba1f
bd83e95f
3cdc0f6a
ba25d36c
bdcc3070
bdcc98c1
bd9f110d
3d6c8a6f
3da31c80
3d33f335
bd34c8bf
be36f2cd
beab5b10
3db792b3
3d423cdb
3d7c8e31
bdc6a45d
be6ebae1
3b0c3680
3d7d525f
be5c790e
3e2ec9f5
3a35fc1d
be588788
bd8be0f9
be2f92df
bd51f334
bde88a5c
bcffab75
3d3bcfc3
beb70ed7
3dcbf3fb
bbe4e28c
be3e5ac2
be3c5074
be9a4c77
bd6a86b9
3d2bc11c
3db268b5
be8387b0
3c1da27c
3c58614f
3da28722
bd09bee4
3b91fcd4
bd5c2b8f
bed7d2db
be14db69
3a6fd1db
be5577dd
be596908
3e1782d7
bc572d5a
bd573009
bd7f395f
bdaf8062
bcdda5e5
be5b6ded
bf0e3f9b
b89696c4
3e924eea
3e389462
3be875c0
be981d29
3e9a7fb1
bbbaa413
3cc9c987
3ddf70d0
be1022d0
be7da012
beb883e6
be143629
be544570
bda764f3
be730149
3e472373
3d83f360
bdc547c3
bdbbae92
bcdbe4b8
3cc861a4
3e2dc5a8
bbedee7b
be9b73ef
3e15b23a
bd80ab80
be98133a
be016bbf
3e429df8
bd9a1870
bd2263db
bd8071a0
3b010f3a
3d3e6e14
bca81820
3d4ea438
bcce821c
3c15ae3f
bc60efcc
3e4dfde4
be33a54f
be0b74ea
bd01b0f1
3d812be5
bd7a4955
bc86416f
be2a90c8
bda491ca
bb396979
3e2443ee
3d97dd60
bc96bff4
bb8966c4
3db6b425
bdc520f5
bb6d9537
3d1316b9
be2f4cae
3e03401a
3deb1de6
bd7d4520
3e53365a
3c5b60db
3d8b06f2
be1b74b6
bd8c140c
bd65289a
3dec978b
be5aab27
3e52273e
bd777ead
3e0a59de
bdcde6ce
3b3766f8
bcf2fee7
3d961d02
be22b1fb
3e02c918
bd5b671a
3e044711
bec35922
bd2dea85
bd332298
bde99cd8
bcaa21db
be4cdc1e
bc9a232d
be0b7697
ba7a655d
bc9dc0f1
be89109a
3d8c4cba
3b85c76b
be920032
be00ecb8
be7a14b4
bd1defab
3dc735b6
3df7de28
beabffe5
bcb53e8f
bd0866ce
bded4a59
be602c6e
bbb82fd9
bce26118
bef33364
bdd9a9cf
3d788130
3d3488e6
be68618a
3e185d51
3cf15b74
be3597da
3d0eb22f
bce3655e
3c02aaf0
bebd52b1
beada025
bda2aae5
3e240928
3e084c09
3b93f165
be6f4195
3e14a3b6
3d3b5bbe
3d2af317
3d943202
beec7a72
bd0049f0
bed8c011
bd127fc7
be391d51
bdadeab9
be6e3550
3dfc202a
bcf24219
3d872ccf
bda16b81
3dcf62c3
3c2e306d
3dd3e176
bd442471
bea2bb5d
bcdcc5b9
be68814a
be9b4473
beb475ac
3e3f6352
3cddfa61
bd72c22f
bbb8b3c8
3d4a4d5f
3d540599
be56f956
3d4681c2
3ccc90ca
3b1bbffb
bd41b493
bd8662c2
bdec11d0
3d66bee6
bd8533e8
bd69ae09
3ce64c28
3b3b1476
3db91d27
be708974
3cbc3461
3d22d8a4
3e0cbb24
3d12b0b0
bc10f6ba
3e503425
3bcc24f8
bd822ccb
bd9145d0
bef00c27
3d3e0ace
bd8055f9
bc7f28ec
bc3f405d
3bbfe848
be16b9fb
bde05771
be3298b4
3dddf591
3e83fd9c
bd646f7a
3e804c94
bcc9bae0
3e3ea13b
3dc2b751
3e1b7a55
bd0393a3
3e28ea67
be6f4ada
bcc6b991
3d27b60e
be0a9f77
bea2ff38
bcf8c23c
3d26b15c
be00c152
bb01eb87
be5fa38e
3d2bbdac
3d70c7af
bca5bd5e
bd3dc7cf
be509b50
3d8e42b2
bd10fec5
be04424e
be85add6
bdd27108
bd05f2e7
bb810d1f
3df7ca01
be1fcbc9
3d19c6cb
3d6e526f
bd91ee13
bdcefd51
bb082a37
bd436953
bea9751f
be5030a1
3e21e032
be0dc885
be4636f9
bb2ef1d6
bc1af248
bd003c97
bd0966c7
bd070add
bc1670f4
be2c678e
beba3791
bcad35da
3e9fc9a8
3e027cfb
3d4628ff
be5118bf
3db076f9
3d82aacc
3cf40d4e
3d55034b
be1d8d09
bec652a8
bede721a
bdb7807f
be1e7e53
39a368e1
be2df380
3e23748f
bdc864fd
bbac0c9d
bcf07b74
3bcd03fb
3d5282dd
3e6f4532
bda30a2d
be21284d
3dfb540b
bd8f6116
be951e91
be635e09
3e5fd649
bd69563c
3dd7c9c1
3d032dd4
bca48a48
3d730034
bd84bb5f
bc9a9477
bcd8eac8
bd5d454e
bd511e5c
bdaf602f
3df769eb
3e4c4df7
3cea2b1e
3bc86308
bc32f801
bd5e4100
3d76cfd3
be423eac
bdf68c65
bed08e60
bdf7efb9
bcae40fa
bd86ed74
baa59ea7
bd99d737
bd543fa0
3cba4aaa
be762832
bdb87ecf
3d8a5abb
3e1fb117
bd9c52cc
3d2b7fa0
bee4a1cc
3e4fc943
be55c259
3e3dcac4
3d41fca9
be3ed280
bd5b79ee
3ac382e9
beb4c109
be1f3fe9
be893560
bb608adf
be5c6d02
3e771048
bf0eafc1
3d0b586e
bedecf0e
3e6ee537
bf1f71d6
bd9f9a9e
be900d33
bda2ae1b
bd6881ae
bca5ddd6
be547e41
3e3cfa58
3c993f16
3e797a92
beaf4447
bd0ec8e7
be8e45bf
3ebb11f7
be32ff17
bd265224
bdd32dae
bc22b0ee
be2f855d
3b2dc3d3
bdb14daa
be624040
bd08cddc
bd4564b0
3b2241df
bee45cd0
3cfce06b
bec8f6a0
3ec79afa
bdb6fc8e
3c6eb335
3e82736d
bcdf45db
3bd36592
3cd230e3
bc817a54
be7557ac
bdbbe9d2
3e7555e4
be5be903
3ea234da
bd19d788
3e65506e
bd81c621
beb847e6
bd13f394
be9a1386
be7b45b3
3d4c93c7
bdc2f0d2
3e12fe0b
be8711d4
bd897c88
3e0ba0bf
be23d185
bb2320f5
3e5459e6
bc7350be
be68239d
be31d7e4
bdd66b5f
bd5feb74
3e841885
bc58181c
be9f5b85
3e682b13
3de50cf1
3e130e77
ba8a9d55
bdbc5bfb
bee0080a
bd4ab761
be0a44f6
bd6cd8a3
bce8144d
3c6adb1f
3d3bd7c2
bdcfc40d
bd85cf63
be732cb9
3df96598
3d1738a3
3d1824cb
3cd99cfa
3c989ce1
bcfeeab5
bda4da78
bd57b135
be47c47e
3d4d79fc
3d14f250
3baa9a34
3d6df73e
be3aaf46
bc63c844
3d1845c5
be5ea561
bd0fa39a
bdd3e9ad
3eb08b32
bd9b31b6
bd3e00fa
bedd1658
3e666bf6
be878809
3e47c249
3da2e842
be5222fc
bdb91aff
3d0976cb
be91d82e
be43e913
be02028a
3cf0617e
bdedd057
3e39a027
bedfb64b
bd84e705
be9fe797
3e9e785d
bec6345f
3d15f651
bed2624b
bdac6301
3cd810de
bd8f2b25
bd89ee26
3e4a56a5
bd328565
3e4573af
be7b5495
bd9facb9
be1373c0
3e7da953
bcc5f928
bb70f9ac
baed2929
bd6d4a95
be8ff2f0
bdb3175d
bd5d5689
be745a2f
be0a5559
bd24898c
3d8a3066
be36fd4d
be8bae1f
bef575dd
3e2c0699
be3a6e61
be649037
3e72dcc7
be41c489
3c09d82c
3cb27c3a
bd1a82dc
3e08f772
beb24d47
3e2d6767
be4beee2
3e89de9e
3d3ba06f
3e2a1035
be8544ef
bea63c23
bd298956
bea936d4
be98ee34
3e068351
be36a9f7
3e086517
beae75c0
3c14bdf0
3e495be6
3d18a4ee
3c7acb70
3e45a1a8
bd483957
be49e118
bd798f71
be141c65
bbbf8b41
3e5cf376
bded45dc
bf0184e5
3dff5b13
3e125186
3e2f142c
3d142145
bd254275
be982c27
3bdeb015
be3ef4ad
beb861ed
3cfe6f0a
bd8e19c9
bd8bcd94
be520b4e
bd4c03b1
bec1707d
3e5d46c5
bb0b056b
3c27c715
bd7b931b
3d133011
3dc36826
be83440c
bac5830f
be0f675f
3e575e52
bd89163e
3c8c03c6
bda7b274
bd85a798
bdbd1891
3c07e974
becb6751
bd9928ba
3d48d4e5
3dec0640
bd636117
bd83919b
be73650c
3e7cbdda
be46c4a3
3df2d433
3cd99699
be27146f
bd7ccbd5
bc21b53d
be15597c
bed1fa8e
bd1a60be
bcd12d95
be47fe8c
3e05f302
be8438a5
bcef08f3
bd8b5e50
3e26eaa6
beddbca4
bd3c18b3
bee16788
3b8a580c
be2245e2
bc90a573
bccb1c70
3e5d6256
bd87bfdd
3df3719e
be655418
bd8788cb
bcba2c2f
3e777bae
bd9b9cba
bd90ebef
bebd5d44
be10518c
be8112b8
bcf60fd2
bd1ffe84
be84b3cd
bdcc6ac4
3bf67dbf
bc8b48d0
bd5aa691
bd69bbf9
be7ccf4f
3d126fb3
befb18ef
3b530f2d
3e48ca0f
3de98429
bdc54beb
bbf70a45
bd8c1584
bd7d6f79
bea0398f
3e1433c8
be6d254a
3eb3fe81
bd05540a
3e1c1602
be51794e
be563fe2
bcf8dff2
be2eb5a7
3d712b51
3e2045c4
be159eaa
3e4262a0
be43942e
3b9d9938
3e446ce3
3d695742
3d841a14
3d8c2ce8
bd4d445e
be440a6b
3acbb36d
bba76929
bd6d245a
3e2e90bf
bcc35e03
be75ef49
3da7f4e5
3e3db8cc
3dce5754
bcf1d821
3c6d0812
bceba286
3c030976
3e010d67
be154e2b
bd2fc7d2
bd562c44
3c0976e3
bebc6a44
bb78a852
beb47fec
3e1e3a7e
bc8fa82c
bded3543
baa9b505
bd480ce8
3d874729
bec57072
bd9d567d
be6da79e
3d8535e0
bc20a09a
3c034d0a
bcd51a13
bd4bc04e
bc0449fd
3ccb9a02
bdc0e8d5
be2e329c
3dbc3316
3e6dde15
bdd14a5f
bd05c3e7
be5e73b1
3e02d7ff
be927dd1
3e187e88
be1b23c9
becc85e8
be5f31a9
bca4c71f
bec4925e
beeed6e7
be876179
3ce9d3a7
be7f8bec
3e2709ca
bee306eb
bd4e599f
be8c4248
3e588edf
bebbf827
bd7654fd
be7d36c1
3d85ad0a
be50efa9
3c79e710
be9b7a6f
3e7040b3
bd719b88
3e6b7aba
bf0a2d92
bd573caf
be1b4fb2
3e683aee
3de2b49e
bd2b87bc
bd143f95
be02bfd5
bd1a83cd
3c9684a9
bd931e7e
be91f7ae
bdda424e
bda86215
3b18c4a2
3caa8b10
be3ff15e
be30d3ed
3e2e177d
bde56678
be216a07
3e5c562f
be814e82
3c00b9c7
bde6763c
3c0a9445
3d54e951
bdc1c361
3e58a67a
beb6683f
3e6f46c1
bd27efe7
3e484885
be70e48f
bea1b113
bcc84405
be58f008
be57187f
3dd17b1f
bd021fb7
3e9129b4
be7125e2
3d001ae7
3e1c6c58
be0cd610
bc004583
3d799c90
bda5b4d2
bd3d4454
bd215b16
bdb19914
bd51a12b
3ea1bca9
be0e3a0d
bec168fd
3d28023f
3e25aa5f
3df64981
bcf16dd2
be055341
befb01dd
bd791154
bde65ce8
be4e1370
bce48ba9
bd8a1cd7
ba896f34
be26f031
3d2c17f6
be0ed0a2
3e333db6
bd5c3292
3bddbaed
bce44453
3ce945b8
3d44e6c9
3d7191b7
bd1a6251
bec1c9eb
be3231e5
bc2b2701
bcc7dc09
3dc6c2f4
bcfd7730
bd7b4642
bcafe59b
bd47a567
3b647285
3d17f5df
3e4e2b05
be2243bc
3d3fa168
bee94e90
3e0835d8
bf00a596
3e5555f9
bdc18a06
be56ee21
bd887483
bdd5a642
bef04b2c
3d3a3328
be2758c9
bcf07a6d
be09f83a
3e1df8f9
bef7ae03
3ccca665
be656606
3e8105b2
bee85e80
bd560e11
be8dbdf6
3b4b0eaf
3d59cd36
bd6a59b0
bdd2357e
3e5f5041
3b12c8a5
3e794ddb
be3cae76
3cf9ef7d
be767e5c
3e1d018d
3e80e24e
bd2dc4ae
bd2a8dd2
bc478bce
be44652e
bd1806c5
bdc6e945
be975a4a
bda85c27
3d178c52
3c8000f7
3dcfd643
3d9a0065
be736fcb
3ea2179c
bb6fc31f
3d3531ef
3e8d9e5e
3e706161
3c21ed3e
bc648de5
bd83ea29
bc145d31
be1670d0
3e2e9e3c
bf00c43c
3e8f0a75
bc12ac05
3ea985c1
be3ad3ef
becce58f
3b788c65
bee02287
beb7ddbd
3e64eb2a
3d3c4516
3e96723f
beabec72
bd320143
3ed22b66
3d16e153
3da43e3a
bc19ddd9
bd990049
bebdf660
be6c3c82
be195b46
bd1e04e2
3e85c147
bcdc8895
be94cf9a
3e4956a5
3ec8e683
3e3446c0
3d4e1c1d
bddd9f5c
beced556
3c30c348
bcbe3a18
bea08b4b
bc8054fb
3d078289
3cefe482
be7e9f58
3d8c5729
bef09e52
3d50eeae
3d861b6d
bde20761
bd239742
bb53a0e7
3e01baac
beab3b16
bc3afa8f
be5aed63
3d5c16a7
bd301db0
bcdfaafb
bd3f5a0c
be4c041e
bbf5aabd
bd3468f9
bda562d4
3d589e05
bd93fede
3ead1160
be836f33
bd7a3208
3d67bce2
3e2d371b
be5f3262
3d2cdcb9
bdc0358e
bd5a172e
bd871f58
bcd04f44
befcb601
bf10e819
bd021f10
3cba703a
bb88218f
3c912176
beb6c5c1
bd342fe9
bdca3a87
3eba792d
bf18b397
bc1c164f
bdb5c6b8
3d468a76
be27316a
bbdbb400
bd0235ad
3ebca9a5
3d298b3c
3e39589f
bead5021
bca65759
bd9ee6c0
3dd4fb72
3d8b0d07
3cc929a4
be69289e
bdf1dfee
bd71afdd
bd126f12
3cc8ce02
3c3a54cc
be06059a
3d0e5b45
3d3e1650
bdeabe99
be34b790
bd1b1fc4
3e7247af
bde87f4f
3d57c985
3e89e630
3d9a8fda
bd90af1a
bcf09332
bc438cfe
bdd1701f
be68b18f
3e6b8d93
beaf15f2
3e968b5c
3b9b670e
3e8506f0
bcf4b3b1
be9531e4
bd013dea
be60298b
3e37b94b
3d7d1cff
be2eef44
3dd48f7a
be92a885
bd13c81a
3e639d4c
bcd6a03a
3bc7aa93
3d966ab5
bccb869a
be94d768
bd85f48c
bd76394e
bd83ee77
3e5568d8
bca6fded
bd9ab8ad
3e4869c1
3ddea976
3d827dde
bd67f913
3c90d062
be773d8f
3d382b23
be3e0034
bb2c03df
3c368865
bdb886c4
3c718d71
beafe48e
3c3c9f28
bce3006a
3dc55052
3d136367
bbd22abd
b9ee7abc
bd2946b7
3e40629b
3cd3308d
bd049a86
bea7bf97
3d53ac09
3c9ae6de
bd620dec
3c9bd8c6
be241f3b
bcd06b8f
bd8d23ab
3da94cf5
3cd02ac3
bc5b8f8c
3e89ce57
be7f2a50
3cad2865
be39d1cf
3d5d5496
be45975a
3c89a019
bda198f8
be655880
bdbc30cc
bd703da9
bf1be3b4
bd4d4701
be1681bd
bc01ca29
be631a31
3d906600
beb73438
bd46b9a4
be4bb15f
3eb8f869
be38c8d8
bce3df20
be3603d7
bc09c125
be8cbd7d
3cf30461
be20632d
3e7acec5
bda87e21
3e0a5b7d
beadced0
3ce76ba9
3d62c9c1
3d9307ba
3d96794e
3c10b295
bdb53873
bdecd270
be429bd2
bd534a62
3d01cf02
be58e988
bd19c1ae
3c1d80f0
bd0c6366
be3c3ff9
be873203
be49815a
3e37665e
be1eae8b
be57cef3
3d7cb02e
be732f4a
bc87758c
bda271ef
bdbc3398
3ddd1ad2
3d22d756
3da10922
bd987ccd
3e1b470e
bc165d0a
3e04f494
bd993fc5
be158d75
bd58d0ec
be162aae
be35ad58
3e3bb682
be2dece4
3d83b6e4
bd97f5bb
3b97f0cf
3e0c5fb5
3d3a8a8e
be9c14e1
3c959108
3d0973e7
bc077932
bdb09672
bda224ed
bd5a3195
3da59988
bd12cc4c
be6e1efc
3d8b4076
3d8554b1
3dd3d5f3
3c53b3db
beb92fc4
bf18e287
bc96d245
bed20967
be1aa2bf
bd82d9b9
bd60316e
bcb038b1
be6fbdaf
be766b71
be9931c2
3dfd7504
bcd8b3e6
bd4d33b4
bbe7a284
3c1bf7cb
bdbb0e22
bddcc819
bd85404c
bddecd9e
bd9067cc
bd5b8512
bc4a80ab
3d568928
be7adb9b
bd8173b3
3d0f4db0
be838b12
3db61ec7
bc447fa1
3dfaada2
bd05381b
bd139972
be692419
3de86933
bdf665e7
3b1dffc8
bd852bbd
bea7e14e
bd443b89
bd6e9d60
beed2c5e
3c219700
bd9dccd5
bc835df2
bdb90713
3e1e6f15
befd498e
bd3eacdf
bed53465
3e967b40
bec35991
3d337f1b
beb7a6a2
3b460e67
be048930
3bcf9769
be3e4802
3e74e48a
bcaeee11
3d457264
be77526e
bcf810b9
3dad6a08
3e2b016b
be08be33
bd00b246
bdf7f704
3dabb4b1
be3cd645
bd48218a
bda8caeb
bd72d538
bdd08f92
bd436bc0
bdabfefc
bc9a686b
be5fd44c
be168e8f
3e158924
be68e2ce
3cbb72fc
3e54b78f
bdb2b47b
bd1e7ee9
bc5f764d
bd54f97f
3ddbe5da
be4ee217
3e13e493
bdd73b90
3e0e4cf3
39e0bccb
3da1892f
bd0a519a
be5006c2
bc366785
bdee4c5a
beb3df13
3de44f61
bdc90d27
3e17679e
bd4bf627
bd11e17d
3d6c86ad
3d6d3400
3cf1814a
bd5d955b
3c86ef61
bdb30629
bd9fa8c1
bdb1005a
bc9ceec1
3dc6cf5a
bca57876
be43e8e8
3df761ff
3d847a3d
3ae7306c
3ccbf3c8
bea3bbfe
bed65fba
3d483123
bd67dfbd
be6a56c3
3c5ff7b2
bbbdaefb
3c4959a1
bd827dc8
3aab7fd7
bf0e39ea
3ded96e5
bd41b5d6
be114842
bd775968
bdaa0ab1
3d53e774
be35f248
bc54f20e
be5eba97
3d9798f6
bd6b95be
bd678cf3
3cd27d64
3bcf3ab3
bd4d2d3d
bc949842
be9d3664
3cb96d68
bc8ab451
3e7c94b4
be355500
3d114475
3da78c03
3e4cf73f
be91b6d0
3cd5ba37
bccae769
bd87d348
be070fe3
bdbffd7b
bebf4b16
bea37cd6
3d20327c
bd83e753
bd8d41e2
3dafa30e
be9efd30
bd7154b6
be9f11bb
3e7ff390
bde8729f
bd588487
be535b2e
bd79bb7f
bd946cf5
bcf82249
bde66c90
3e9e1102
bc89d3ed
3e43ff9d
be217100
bc8ae14d
3d9c66d0
3db7556c
3d344fd3
bd6ffeae
be8eb632
3ce91416
be868c90
bd3c97ed
bcc63700
bd1dd26a
3d1a9c33
bccb6f41
3c61535a
bdc9eaba
bdce8749
be890f0e
3e0594b3
be3c021e
be0c2130
3e03f8e0
bc554f51
bd57d368
bd72b95e
bd92e301
bd8cecf1
bd9fbe4e
3e1ed7fe
be378932
3e2be7d9
bceda3f8
3e2f34cc
bd8e2bbe
be8264bc
bcbef3c9
be4c55c3
3e1a6900
3dd8fac3
bdebf15f
3cbdfe51
bd749d67
3cdb92d9
3e46396b
bce113bb
be6d15fd
bd34adba
3c4eb63f
bde2ccf4
be125c0c
bd3d3d8f
bd76da17
3e073fba
be064011
bdd5c092
3dc5dcf4
3e04d476
bcd97565
3cec1d4e
be3ed077
be0730fd
bc628595
bdcfd2dd
3b26b83c
3be990b5
bd03cbfc
bd0c6ff8
bdf11f1e
bdea7bca
be89c3f5
be9a0851
3a061345
be64942a
3cc1970d
bc5efae4
3d4906a4
3dc6034e
bd9e22ff
be405722
3dc961a0
bd9366e2
bd24968d
3e730f23
beb1b734
bd42ca2a
bd403389
bbbcc2ff
bd561929
bcfd0008
3df3299f
bd50ad7b
bc69e056
3cf085cc
bee8a9f5
be5e64bc
3d0d19bf
bd571069
3e0d6cfd
3e5d54bc
bcd9cd55
3e891afd
3b8448e7
3e8481f0
bcfef354
3e7b02e6
be220a60
3d9a37fb
bd87052b
3db11a0b
be846650
bebba3e7
bdaba26e
3ded7b1a
3bdf96eb
be23a1ce
bce49578
3d56c8c8
3e0cec55
bd9bedd3
beab05c7
3e586296
3d349b57
beba7bac
bebe08f5
be48cf5c
bc697a95
3e06cf4f
3dc1b3f9
be888762
3bb7f44c
bdef2fe2
3e272eb8
bd932208
3cc92631
bd5841c4
bca8f459
bdeb5c65
3d658d13
be6123d3
bdb8b3e2
be8389dc
3d814e61
be6fd1cb
3a886969
bdd50f33
bc92eefd
be28c6a8
3e0c7b56
3c5fe9d2
3e1809a6
3d9921ac
bd1054ef
be88d33d
3e17b4aa
be816b40
bd2c0285
be3a69b3
3e74cc67
be611ee6
3d565e36
becbbd7f
bdf29844
bd8f5ce3
beb83d7e
3e08166a
be49f1c8
3cb488d2
bd3faf92
bdbabea0
3df20706
3d30ab66
bd28c9cd
be4fc9c0
3c7ebc53
3d8c8589
bed2310b
be37bf16
3d9e78f4
bde5cad8
3e12b616
3e932208
bba7de0a
3dee1cfa
3df12912
3d1f91f9
bdce42f0
3c80dd0f
be0ed391
be67b0f2
3e0ad1ab
bea27c6e
bd69e3f9
be1ca516
bd508cbc
bce4dc7e
be1cbe2f
3dc411bc
bd4c8b2f
bd8bd6c6
bca144cb
bafa26e2
bda2012b
3e0b613a
beac8a7c
bd93bfea
3c58a00a
bda150f3
bd0ef515
3e05925a
bd90ea9f
be650ecb
bc1f29a5
bdba8fdd
bed4b977
be8ee453
3daea856
3d121d8b
bc777d5d
3e31fc86
bda6a80c
3d9fe1ca
bd0f3d6c
3e8050d3
bd26703b
3e6b52b8
beaddfff
3b3c85bd
3cf196d1
bced682d
bed1b156
be57e4df
be11420f
3bbc76d1
bd4366d5
be5f2c7f
3d2429a8
bd2270c0
3cd18f9d
3c148295
be82b728
3e42a295
bd9eca2a
bf042746
be96d56d
be86ec5c
bd457a48
bdb612bb
3d5b1867
bed2ac1a
bc915f27
bcffe102
3e47ca70
be171ba1
3c64f0df
bda39b11
3e1cda74
bc3da501
3d880b3e
bd9d5841
be4eab99
be1fd9fd
3ce54c1b
becb7306
bcbdef87
bd763a29
bcce5ed3
be1e3e34
bc0c9d4f
bd81cb6c
3ea2438e
bd99d09c
3d26b771
befd4b92
3e59fb97
3c7ea7a5
bd9c3bf4
be0354ee
3d826067
bed21a19
be7be050
be98a920
bea63d9d
bd3f4e18
be85b825
3e30e69c
be56a940
bd289da4
bcfc1209
3b2d53eb
3e174ff5
3cb1a7f4
3d065814
be9118b1
3d6b93dd
bdbd7638
beb5733d
bea0a8e5
3d17e3bf
bcfc46a4
3e00409b
3e0d05a5
bdaa7f34
bc39cf82
3ad0ae5e
39613768
bda43c9c
baca0d10
bda5b661
bdd8c01b
bcc0512e
be142a76
bc07a003
bde35637
bc204154
bd4aaea0
bd7836fa
be1c0ae5
bcf99f2e
bd94c8f3
3dba1066
bd95c289
bbc7cdd4
3e506937
be1c39dc
bd2e9611
bc47257f
be117590
3d5da060
bcfea553
3d960807
bde53549
bc8963dc
bb8f1c4c
be3fdd5e
be4bc5f4
3d69c7b6
bd3b7422
bdd95059
3dfd5c94
bd55d139
3d48ec46
be07ea78
3dd3831e
bce901df
3e39ce10
be126f00
3dabd868
3cd6870d
bd66e856
be17f4c7
be13c08a
bd52a24b
be22bdff
bce5e6ee
be5cf53e
3c58038a
3c9e4913
3cb97cdc
bcd431ce
be679844
3e029726
bd0a3fee
beea6218
bd77f027
be79aa45
bc63fbed
be243b91
3d26cb28
be367768
bcd7c6f5
bd2294af
3e0993f7
bd89f2d4
3cd9e4e6
bb9797d1
becbba37
bdcde71a
3cf8df4e
be5a4028
bde3efce
bd4808ba
3e06ed33
be7653f6
3cf6995d
bde7ccc1
3bda79c2
be5aae37
3d97730d
3c69d79f
3d0dfe68
3c35e8d7
bc1a1ab6
be94913c
3dc2acac
bd2f6015
3ce2017a
be4663a0
3dc24d71
bec31e59
bdd71f08
be6306f7
be476f2c
bdccd4a9
bebcc0f4
3e191ef4
be0215f7
3dabc06b
bd8bc99c
bde8cfab
3dc9fe4b
3b285b85
3cc76b4d
be8e4b7a
bcd9e01d
3ceca57d
be978b5b
beb7f969
3e8c729a
bd3cdddb
3c9c54ff
3d0397ad
bd263740
3d53deaf
bd9e12b5
bcab3a95
bd8cb37d
bc044532
be5753cf
bea25856
3c897617
bd7a44b8
3d625b88
bdd90871
bd5ad3dd
bd98974f
bd77d3e3
bc363c06
bd93d775
3d7180bb
3d91628e
3d07061b
bdeff036
3e33cff6
bdbd0447
3c92bcdc
bd620b52
be184f01
bdcfab3e
3d37237b
bd95bb23
3d0dddc4
3bad7a54
3e1d233d
be4661f0
bdb6d88b
bdc6b6bb
3d892d9c
3df537f7
3dee98fb
bcf12761
3dbff728
3d309ebd
3e40fc5d
3d4db0bc
3e5b522f
be616f90
3ddb6d42
bd5a37c3
3e075777
be945415
be48f020
bd1f13bc
3e3d9a45
bc6a7c5f
bd612ed0
bd14bdc2
bc5ad14b
bca1e2d6
bb9de702
beb3dc96
bd058d41
bd39b1b7
be6d8da6
be95e3b9
be15cfbd
3c2a9bc9
bd549e0b
bafa875a
be8876aa
bd550449
3b182365
3c052358
bd7ef75d
3ac423eb
3ca9f4f8
3e1547b0
be6efc38
bd90684b
bea98da8
bead5257
3c921dd6
3da8fbeb
bd3c3003
bd0b13bf
bd41a8c8
3c9b51ae
be72d3ea
be32764d
3cb7c0fd
bcca4983
3d43643f
3cae6414
beadab61
bdc22469
bdc51ecf
3bffb696
3d86040f
bcb6f383
bee68c55
be24c111
be8b0927
be00fdde
bcdea5ac
bef2c48e
3e7f9af8
bdee8a19
bc4c2b04
bce3a2c0
bcdf68f1
3d9e9cee
3e655c54
3b515172
beaa6cd5
bd862ea2
3de1bf7f
bdc2fa64
be8e26c8
3e0ffc26
bd8c6cfd
bd8291a5
3d855d8a
bcb9a637
bb41a9a9
39b88dc9
3ce86dfb
bd0f38f1
bd594b24
bd9b5557
bdd03d5a
3e00824b
bd8039b0
bc80b5b5
bcc74f64
3bc0d0bb
3a014de5
bded2cfd
3d0c9676
ba36fc21
3de02e17
3ce0e1d3
bcaacc21
bd163f89
3df93a98
bda8f887
bd4ecb35
bc495690
bdb14e9e
bbd5d659
bdaada17
3d89a755
be45c6f8
3b2f26d6
3e249cd8
be2a1ebf
be76465e
3d94cae9
3caf681b
bc1cfeb7
3dfbc3f2
bdadfea3
3da18000
bd0550dc
3de4a36b
bd6040d6
3e0e26f2
bde32e31
bcc48be2
bd3088d8
3cfe5b2d
beb37668
be10d243
bdfeae8c
3ca37bd8
bd809f70
be108397
3b91a4c5
3e14ad5b
3b5bb008
bc0f424c
bee41741
3db6ac30
bd9f8aa9
be8571fc
be1caa1d
be5965e7
3d59cdb6
ba60e69c
bc0212b7
be1ca27b
bddc135a
bd625f80
3ce97c2e
bca3dd7a
bd7ce8eb
bd555d42
3ec00cac
bd30df4e
bb7ff59a
be888297
bc7fca5b
bd104053
3d9ab22e
be3aaea8
3c42688b
bda123f4
3cb5b46f
be853636
be94bdef
3cead29e
3e5e842f
3bf9d31f
3ccc875f
be9561ae
3c38dde8
bc93b042
bb4596b1
bd8f29ed
bd9c496c
be9c3595
bd78eb79
be40a7af
bda1c81b
bc71166a
bed755b3
3d82c0bc
bdacd685
bd9fc1fc
bd3fe298
3d21bd2e
3dbd3704
3d3d1c90
bd5fb502
be8cf8df
3dcd7948
bc3fa41a
bea7056f
be63a25a
3e0f7f11
bdb294b0
bd6c154a
3e30d0b6
bcbffafc
bd0ddb4a
bbae1aeb
bd22ee22
bcfdeb4c
3c91603f
bb1e228a
3da94ac1
3d8c17ae
bd2ba7c3
bdcfc4e6
bbd63ce1
bd438bd6
bcc7119e
3c25975a
be06e927
bd1b77e8
3c92fe07
bba74f21
bdbf1b0a
bd9e1d4b
3d2926fc
bda85e03
bd519e56
bcf1e2cb
be3474cb
3d240047
3c33bba7
3e0c34e0
be7432bf
bbfe61fa
bc9a680c
be764f88
bc747d4b
3cc4ac21
3db8ed1b
3cb6517e
3e2d482b
bd045bfd
3e03025e
be14eb4e
3e249065
bc571b75
3d39153d
be17b2f0
3e0100cb
3c0e853a
3d8c34c6
bdcc0561
bdf22812
bd26414e
3b41625b
bd160832
bd3deb49
ba14fec5
3cc8474f
be0bddbc
bd32a463
be48ebb8
bd840635
bdc1cff8
be5487ba
be60ceab
be9bc8b3
be0811f4
be0b2cb8
bc8b2c0a
bdd3c6cb
bc9117e8
3ca6196c
3d5f9134
3d09ef0e
3cdece74
3d1239f6
bd49f1b7
bdadcb01
3dba8bf5
be2f8bc5
be14f951
3c067505
3d6a49be
3d55cb7a
bd2d1e6e
bdf58e35
bbbc4469
be9767b5
be0e8667
3c739d0f
bce82036
bc4052ad
bcb36331
bdfc829a
3dbab873
bda4fe53
bd84e706
bcdb9575
bd996256
be71b693
bde4aca9
bc8cfe0e
3d6a2d38
bd683cc1
be882edc
3dcf77c1
be45e152
bd0fb5b8
bd83c50f
bd545bb8
3d58d244
3cf4279c
bce7ac04
be452543
3cb5bd2c
3d552bed
be9474f3
be9058ea
3dc743bf
bd0489f6
bd5d0099
3e47740d
3c282073
be2126c5
bbeb9932
3d14463b
bdb8dfac
3c30af1f
bd85994d
bd9712ef
3dd55274
be20ec54
3d1a9417
bd307e66
bd406188
bd82d75d
be52d170
3d4a7003
bd7b3667
3e7436f1
3d017ff8
bd7e0b11
bdd37908
3def2bfd
3d719101
3c6ef7f4
3cb6e635
bc9ba1e2
bdf272a5
3df6e6ac
bdefc6b1
3d0a1f8f
bc4104ad
bd4034e0
be17d632
3db2669d
be811155
bc74b625
bdfcaa26
3a65d532
bdf08f1a
3d90b366
bd187c0c
3debdfe3
bdac12f1
3d801064
be0a5f6a
bcff1dbd
bcbfad1c
3bf6988e
be821994
3e0c30f3
3cd268f3
3ca21644
3c71d92e
be99a499
bda3e652
bd8f7781
bd6f6764
bd046f8a
bedde5e8
bc985bda
bd7ff905
be507dfa
bde2090f
bf025e42
bdfd3e55
bdc5d5e4
3d219772
bdb08837
bbbce6d2
bc50440e
3da3f33c
bca085d2
bd8423f8
bd84604b
be8b4446
be87aef5
bcaf8257
beb78560
be3a0755
bd2a64f6
bdd2f428
3cd76a07
bd4fc636
bdcb11ab
bc8bda80
be877ac1
be603254
be17edb0
3da61d36
3ae880ac
bd6ba33c
be89b23d
3daa985c
3e03f444
bc2c84c5
3d5b3af7
3a248121
be8d261a
be6cd0cd
be87d10f
bd05c9aa
bd676b5a
be95607b
bccead2e
be83b10b
bdf59690
bc97ef1f
3d5b401f
bc5632df
3d98b5a4
3d17c72b
bebe0255
3d780b03
3d684362
bec10b11
be9a4905
bdad9c02
bcef5dea
3d2e2686
bccca6cd
3cdd7929
3e23dae6
3c488280
bb8db0d7
bd5b080d
bcaedf64
bc9fa779
bec46cc8
3d4b2a49
bd920b78
3d8d281c
3c7f2347
bceb8a77
bd9453d4
bd51017c
3dea1386
bc1980aa
3e435dca
be1e33f2
bcac5521
bcb66ce4
bd53ed08
3ca096e8
bdc2c2c4
3c8a9d9b
3d090daa
3d246bf4
3aa93a12
bdf82889
3dd7ced3
bcbb74fd
3e01c795
be16dd6f
3dbbf96a
be8e19cd
bd8fc97c
3e0cce21
3d5f9848
bd7747b1
3e36efaf
3c750e98
3e32ea73
3ccadfdb
3de65866
be377bd6
3df2f362
3d19f5db
3c9d9bfb
be81194a
bca25adb
bdd217d2
3e0ee386
bd1759a0
bd9033bb
bcf95331
bd8825b8
bca3e45a
bc449382
bf052aee
be042194
bc5bec06
be07f2c3
be9ce498
be0cef1d
3d95d62c
3c797d62
bdbe2d7a
be348c21
bd37e3cf
bd2237fb
3dabae30
bd738b9e
3c9f333a
bd589b27
be0bce4b
bec541d0
3dc747b2
beb54939
bde54136
3d31510e
bdeee913
3d62a3b3
bd55b5a2
bdb29395
bd8dc493
bdba04c3
be3ca2cc
be08c59c
3e4fca76
3d606565
bcb088ad
be467893
3e1e34c5
3de2536c
bd3960f0
3de2d8fa
3d09f33d
be1dc1a2
bdd609ab
beeab3b0
bdfaa9f6
bdc28e51
be8e0c03
3da136f8
bdc0df75
be3a50dd
bd62a028
3d89da4a
3dee2277
3cd845a8
bbacb046
be309014
3d210dbe
3d407129
be3c6c33
be59fdc5
bd363982
bd1f1fc2
be3a7c09
bc086990
3d1e8721
be1950a5
3de5ced4
3d164095
bd7dedd7
bd704bb2
3ce773ae
be08c1e2
3d021aab
bdde4f2b
3c4df838
bc378e6b
3cc1ef7f
bd537c23
bd6747bf
3ccc545e
bccf53ca
3da3ffe4
3da5a762
3c9f6417
3bd4dad2
3b9a3def
bd69f0d1
bd1b3242
3cf8fb84
bd6e4324
3c47096f
bc13a60a
bdbeb907
be00c178
bd1dd6f7
3d3e05c2
be98098a
3d0a773b
be986d84
be10dbdf
3d6c49dd
3df1089f
bd4c341e
3e43cd0d
bda075e7
3dd2864b
bd255de2
3db1d6d2
bd4fdbe7
3df03e70
3d3afab4
3d967d45
bde2492c
be560f05
bd4eb338
bc65c39e
bd3c34a8
be516936
bbb77956
be246c67
bc7b13a5
3bfd6238
be8e4b58
be4a6b41
bd907ad9
be325a61
be6653bb
be86cb28
bdb1a46b
bb085f97
3d008576
bda68b36
3d447590
bd030c98
ba60a845
bd29846b
bd931d76
bd887340
be023bb0
be06493b
3c5ac082
bef6f076
bd1bf5fa
3d7a28f7
bd3c50e2
bbc6cfa3
bdfd399b
bd5acfdc
bdaf6edd
bd8b887a
be45a86d
bce152d3
3e25d2b1
bce58fe2
3c8c9a6f
be26ffec
3cc1152d
3dc49e48
3bec8d38
3c82bcdd
bbb1b9ff
be084f9e
bde5c572
be9e67a8
bd8b7aa3
bdb12e0d
be99aa7e
3d682eae
be65b2d3
be0f2cbf
3b33275d
3c88680e
3e0cc9d2
3d58d090
bcb6eb0d
be81f336
bbf262e3
3c96a539
bebf6445
be04a980
3dc9605f
bd315cfe
be350878
3d67c146
3d01bad5
be36cde7
bb0a88b0
3d19dc93
bda57ebb
bcb22408
3cc22f4b
be7b827c
3d2ad5d4
3d96a150
3c6380fc
bdc09788
bd0c8e4e
bd9ddd01
3da5e05f
bee95eac
3b4bdf46
be0d8862
bb2ab63e
bd1e212c
bc9f688f
be2ac5d4
bdb5f1f8
bbc53169
bd262193
3e164837
bdf27974
bcfdb25b
3e3db1eb
bf2327f7
bd62101c
bd7ce495
3eac3cc8
3d06ba1d
3de524ca
bd0d6e29
be435ac7
bdfd7438
3cb36418
bebb5033
be704adc
be50d735
3d39ee12
be9458df
3e307385
be9e71c5
3be45fa8
be3a0071
3e6d61ea
3e8cfa9b
bd6bc945
3d4da2c1
3cc55da4
be7fdb74
3d39650f
bec81d87
3e30d2a7
3d0047c1
3e20406b
be28a998
bdaa5cc5
3ea39eb3
3e99ccd4
3e4af228
bd08f478
be94ec40
bd7e9f61
3e002302
bd21434b
bd846ee1
bd6203e7
bd7b0dd1
bd79f98f
3cefcb22
bee6c295
bea3cb57
3d2f8ddb
3dc58e4e
3e028f1d
bd4df045
3ded65ab
bb2fe8c1
bcf510f5
bcb95236
bd5d8b16
bd7c46c2
bdfd7567
3d96a73f
bd926a43
3b0c2351
3d0a8775
3db90cbf
be261da0
bd53a73a
b9aea594
bd5de192
3de5bd4f
39216bad
be9a7ff9
3e8bca67
3db4d733
bdd11bfe
3e897f08
bd9efa7f
beb36686
3df22e58
bcdf48cf
3dd1fc1e
bdae7f49
be586c27
bc99e243
bcba8de3
bdd8753c
bdcc0cfe
3e9cbce2
3e52a47e
be1d5e1d
bd90be96
beab2311
bee839c5
bbfdccca
be0e03cf
bd99096e
3bde87b9
bd98e749
bd5be9f6
3c3e515a
bedaf946
3e21b9bf
3e5e699c
bb37b847
bd86df95
bb5b927c
bcc90be0
3d8d19bb
be4f7c91
3c71508d
bd3869db
be4d995b
bc4f7875
bc83178a
bdbd6544
3e9863f1
bcfbe382
bcc541c2
3dd5bbc2
bde7f622
bd3c755e
3e3dc467
beb279ed
3ce3675c
3dee9cc9
3e5c9aaa
3dac06ca
3e14e0fd
bd2a9406
bc989529
be1af623
3d0d5b26
becc6ead
bea0f044
be74a4db
bbbf5bf5
be683252
3e293284
bec03fac
3d224670
be06b5b0
3e770125
3e1c4094
bd4c5690
bbaac7ce
3cddf9dd
bdfb75e9
bcc20ba0
be5b5904
3df7968e
bd803f1b
3e0b2ae0
beb392c5
bd585e91
3e80da96
3e85fbfc
3ea54228
bcaf39bd
be990d5c
bdb1f6ba
3e61a41f
bd380871
bd554d6b
bdb9f716
bcb239f6
3c90c5d3
bb1be650
be83ad2d
bedf42ac
bdaee29a
3de0541b
3e2f5f5a
3e3a8f0c
3ddfd94b
3ead7d82
bda0d7f8
bd16d7f4
3cb8e88f
bdeae246
be2dd49a
3dea6eed
bb8ac35f
bca423ea
bd82fb71
3d681289
be3073fa
bcf1a0fc
bc6128b1
bdb4ef7f
bd7356f3
3d86975f
be1dd6c6
bbac4189
3d99e35d
bd82650c
3e4ac306
bde4b6ff
be8ba253
3d68171e
3ce7c284
bd875fce
bdedbb44
be4a01f2
3c6fb74f
3e136fcc
bde2f0ef
3bf849ad
3e35b85e
3e35ff75
bde87cfb
bc4f0519
be9340d8
bea849cd
3c0f4291
be88c6a9
be048d8e
3d162711
3c473c60
bceb7146
3d2940d6
bea84605
bd903ca4
3e0e63df
bd3a574a
bddaea51
bd14ef3a
bd0033fa
bda0a839
be822b58
3cb80e00
bd303db9
bc5af95e
3cfac462
bce01eae
bdf0561d
3e26d18b
bcce9794
3b5bd64a
3e1e4f34
bd273f7b
bdf1acb0
3e68c27b
beb0d7c1
bc930a86
bd072c8b
3eca09cc
bc65f944
3dad1202
be9a9a84
bcb4a4ec
be805d48
bd7ac919
bf497629
be26e8f6
be8bdb5b
b9ba406d
be89e398
3e4f4849
bee96b1a
bc9b320e
bd84a8ab
3e8ec7d7
3ccf2c97
3d5e9021
bdaa13bc
bd6d7abe
bedceb15
bd57f5dd
beb31733
3e2d4057
3d12230a
3d5015e3
bef0fffc
bcf4cb75
3eb4296d
3e9e48d0
3dd5cd60
bd8605ea
39c18bbe
be189804
3d8f1e16
3d37323e
bd280fea
bd85587e
bc77474d
bcb73ee7
ba8704b2
be967f95
bef64c64
bdd8039f
bd669c03
3dce70b6
3ccaa991
3e091d10
3e5dff57
3c8b54c9
bceb6b96
3af1a5b5
bdc56741
be4ebd00
3e5b796e
bdaea27e
bd9512c1
ba717cbb
3d1864af
be691b3a
bdbf3473
3c124714
be0688d6
3c530f64
3d2a2138
bdaf0ec1
3d8504e4
3db000bf
bd9c6adb
3d3ea81e
bdffd224
be551d13
3dfc8b54
3cd52735
bd98f441
3d28619e
be8c13af
bd292206
3dd68103
bda373ad
bde2bb73
3e3ec25a
3d6fc8de
be7c033c
3cf1b64e
be92ce8f
bf147477
bcecd26b
bed24311
be4ad894
bd451f42
bb755b35
3c854568
3cc40209
bebf17f0
be8e49b1
3dcad1dc
bd4a135b
bd88645b
bbb6f0e5
3c42e3de
bc1090b5
bec5e0c8
bd263d8a
bca44270
3d770fff
bd75d589
bd6ddb79
bcca709e
3dda65f7
3d328a67
bd4f1cd9
3db7dd64
bda0eb32
bda8e221
3e3c19d7
bf352c22
3bf1532c
bdc3dd29
3dbbc84a
3d919e18
3e06a606
bd639fef
be7de357
bdc2e642
3acfc288
be0dd3c8
bf26c421
be27495b
bce2449c
be29e3c8
3e18d311
be56637b
bce9d2d9
bd820083
3e4b1509
3d61d9c0
3cc05d4f
be40742c
bd1c61b6
bd958416
3d368069
be5ec4db
3e22c610
bce5eb0b
3d8c8c2a
be0faea5
bd3e6695
3dd7da13
3d800001
3dacb495
bd0095ee
becd9ec7
bdec06ff
3dfaffc9
3c9f8478
bded9ba7
bd93cdb8
bd7456d8
bcb1b39c
3d44dec1
bf170481
bebcb3dd
bba1f012
bc361d42
3e40f749
be300016
3e3412ae
3d80f387
bd9a0a4e
bdd9ee48
bd089926
bde3ffba
bdfab4bf
3e0f0c9c
bd43d15f
3d7329e2
bd2a213f
3c8975b7
bd81e471
3d18071a
3a6b0280
3d8eb252
3d013099
3c9ab357
3b18297b
3dd4ed38
3db2fc19
bdd6f1a4
3a35f316
bd86b149
be7af638
3dfacafe
bd90678b
3d3a4bb4
bd82b45a
bd2507ed
bd6145b5
3dd280a8
bcc4c28e
be94ac3d
3d38c881
3cafc2f6
bd7ef7a6
bd3dc6a6
bd7eef2c
be8f895e
3d0213ab
be186b90
be2b4b2e
bd55808e
bd89b3fa
bd732978
3e5da0dc
be785288
be54312c
3deef851
bda5a987
be26ff66
bd84b99c
3c868887
bd15aa58
beb3b259
bb176d5b
bd35b79d
3dd8e01f
bd08927e
bd443873
bd0eb9bd
3eb1d959
bd85fae3
bd3e9792
3c28cabf
3d0e62a0
3c1c1147
3dc5b5f7
be0267ac
b994bc9a
be0f43af
3dc046bf
3e1f9cac
3e0fccd1
be11c6be
3cdd5be1
bc1e2688
bd436057
be486830
bea68394
bd711eb7
bcde9b43
3bd56ef4
3e498424
be682b72
bd6100e4
be10f57b
3dbd51b0
bdd5d4b3
bd4a48b4
bd749dc0
bd7d08b9
bdb547ce
3ccc6852
be765b83
bd0d123a
bd29de09
3d58c79c
be312285
bda6deea
bda69c00
3d029e59
3ad94160
bd4c40f5
be580a94
bd91c4fd
3dd22615
bcb05e18
bd8ea198
bd8a431f
bc6b4d5a
bd5329a9
3d22321f
bee7752e
be7d69f9
3da359a2
3cbbef42
3db97026
3e4ab77f
3db5732d
3dc89539
bd0e031e
bd81b2ee
bd1a89fa
bdd777cb
bd99587b
3e55ea25
3cd7a446
3c2f1fe6
3c47bbb2
bd0e8b02
bd07a62e
bce3bd49
bd19b3a5
3ca41674
3e6170b9
bd1001c8
3d14af98
3dd928f6
3df264fa
bdaeeeb0
bc219e31
bd25cdfb
be9253b8
3d3f8845
3c6d9eae
bd4388f5
3cd46d38
3bae4160
bd29345f
bd3ba922
bba7916c
bdf7064a
bdb07378
3cf96955
3cc80686
bc8db542
bdc69122
be8f32fa
bd5b69f1
be093672
be1bc5f3
bd7ff260
bdaff53a
3d0c1bec
3dcd4b8d
be1fb58d
bc80ef11
3debe20f
bb4d651c
bd79651c
bcd47597
bd97b05f
be1aa609
be6b2f87
bb0b6e9b
bd87f29b
3d82422b
bc236c6d
bd888256
be1113ee
3e526874
3d67c81f
3c82f8c5
3e2fcfcc
bc95baab
bda2808b
3dbc88fc
bf013335
3c80b79c
bd63f864
3e2a50fc
3df2477b
3d964f01
be9878c2
bd7a90e2
bddc372d
bc57a5e5
be89ef99
be26c71b
be500941
3d1a9620
bde1685d
3e6c6016
bebb5fbb
3c83e2f2
3d8fc236
bb1f1d84
bdc90433
bd58ea1f
bd3f3694
3ccb0f71
be86774f
3af5a1d3
be8289a5
3dbf3d78
3c85fdbe
3da12f8b
beca4c82
3ce4e2f3
3d996c3c
3df4fe95
3c9d63f5
bd660697
be6f7636
bdd1957c
3e42bb17
bd6ad4e7
3c4f105b
be569222
bc1309b6
bd8c23f0
bd15797c
bea207bb
bebd8d25
3d88e9df
bd84e24f
3dedde4f
3c3da184
3e1644d6
3d22573b
bcb07fee
bcc34fef
bd823053
bdc7a93f
be923d1d
3e1c92cf
3c8369b0
3ce82b60
bd51f276
3c001152
be27e271
bd31ba2b
bd833277
3b42fed8
3d29bdb6
bd7a3ebd
bd0f09f7
3d992f69
3e073ac5
bc2c3bf8
3be42919
bb8f0e84
be20ae38
3de75422
3ceb83b8
bd56c41b
3ad56089
bdc16c3b
3d0a17c4
bd4f220b
bb9efe66
3d2b0526
3ddf60bd
bd441d39
bd503efc
bdc27844
be6e5607
beb31db1
bd0a52b0
be344d4f
3c63b487
3d17b3e2
bd756281
bc246e0b
3db66762
be6a0b5f
3e2d73f6
3db47305
bcdde7a7
bd76daa2
bd4fa3fa
3d2bc6f9
bdf82f54
beffb1fc
3bf148f9
be0a7751
3d55dd7d
bdee09b6
bd34825e
bd1ef4b3
3d9975ae
bd1a4b32
bcf774d1
3de50869
be5582c5
bd17cb05
3e357b97
beff79b9
3d234515
be80bf82
3e4dd936
3e2f80a9
3d8c49fd
3d8cef09
bcfe2444
bd11b34a
bc68868a
be849d4a
bf3de2d2
bdf70a51
bd506860
bdcdb02a
3e66e761
beb2afff
bd219bb9
bdc253ca
3df5e78b
3d6e6bfa
bd22848f
be6bfcf1
bca16b10
be670014
bc80af5d
be796c96
3e55d3cb
3c7cc3e3
3c55b3c1
be55d66f
bd18c9a5
3d8ff293
3e7f82c9
be0c1184
b97e7f48
be8358e9
bd5361fd
3d601178
bdc83f77
bb7ab496
bdb102be
bd04828e
bcfce455
3ad0142e
bf081407
bea54f2c
bda2b656
bace2580
3e4ede41
3ef051c1
3e1e4f55
3df6e7d7
bd97727c
bde22dae
3c1521c1
be2edcea
3ce61b27
3db8c2a7
bdda9d29
3da5b237
bd717d43
bcaf6e02
bdc5c968
be07cd48
3d28e6bb
bdb4e8d5
be2387df
bb2bae00
3c0421a0
3d9593c9
3da2e6ba
bd4c014f
3d9b3179
be06b9cc
be92ee5c
3dd2e2c9
bbad1fe6
3d9a06dc
bd80ce45
be632b70
3d413326
3bf8b528
be1ccb9f
be91bdec
3d941122
bd6754a0
be376e6e
bd8e890b
bd974cb0
beb9d254
bcfb1736
befaa1bc
be557e41
3c67d9f6
bd487d6c
bccbcb70
3df1894b
beab2bad
be780622
3e2fdad8
3c7edbe5
3ca8a3ba
bb423569
3d3a7138
be09c503
beee8c83
bd048125
bd33815a
3cdd3d15
bd6e0809
bcf677c3
bdf2b5a5
3e973e79
3d296030
bc060373
3e442676
bcc1dca7
bd8c6f60
3da21569
be6e81d3
bc622d46
bed36372
3e85f322
3d9c4497
3dbb7cda
3dcba39d
bdcb7860
bd61e3d9
bd33df22
bea60dd0
bf12045b
be23e24c
bd1a5e81
bdc6c055
3e3a490f
bebb7424
bd1bf64f
bca9b742
3d1db53b
3d74cab6
bc208330
be6f7444
bd3cf552
bdab978b
bd450a22
be5f2acf
3dcd9bbd
bd46b420
3d7a794a
be35f212
bd9f0be0
3d8b33a0
3ea7a174
3e44a16e
bc45d6ac
bef89c75
3cd79dee
3d8f98a9
bd4f0008
bdb428f2
3c5c59a6
bac7ae2a
3d4b5078
bbe3931e
beb6be47
be4adb4d
3d8e478d
3d818eb4
3e0c2b7d
bba64929
3de602b1
bd62f747
bd5feb0b
bc7a8528
3ac7e494
bde6e011
be1fac1e
3d9ec6bb
3d0a7213
3d1b24d6
3b853caa
3d349fb5
be1b48a3
be0b3cde
3a9923cb
bdc0238b
bd4aed76
3d581d1d
bdee7f47
3dd5d82d
3d923d13
bdccf157
3d24ac35
3c234d7c
be399862
3e32fe73
bd5cdee2
bdc44cca
3c790947
be215e86
3c4b3617
3cd3515a
be18230f
be43fa43
3dc255d0
39273839
bd92db2c
bcf0acc7
be3a55b4
be5a7d5c
bc89d4ec
be936ad8
bd898744
bc67f60d
bc7cdc3b
bd224bdc
bd24a525
be224c0b
be254778
3df83281
bd957fb1
be24a05a
bd583000
bcee0a46
bea87d01
bf01db9b
bcf3d1ef
bdf053bc
bd65b885
bc2ebddd
3d1afacb
be5e6a6a
3e582be3
bb3b8d9a
3d4aae16
3d8c0783
bd89523f
be050360
3d999481
bef4a60d
3be1fcef
be83d792
3e883e39
3d61f660
3e0ef76b
be1c8217
be024558
bde8463d
b9fd4e08
bec27ba2
bf23696b
be4d9ea5
bd0d5f2e
be5af34e
3e602395
bee3c97b
3c6e8eff
bdda0e30
3e000685
bde75819
bd4ece07
bca30482
bd2deb61
be1299d1
bd76eb51
be51aefc
3e10df47
bcbe2270
3df1ee47
beb04250
bb9eafc2
3e336c43
3df1d1dd
3e0752db
bd602dee
beb53ffc
bd822b71
3d69b07a
3ab10256
bda8a37b
bdcb6782
bd07a539
bd4ba41f
bd55ad9c
beafa922
be7ab787
3d06d433
3db1eed0
3e168517
3dce8aa5
3e2a0f54
bdcd94da
bdbe0287
bd8913a3
bd0a36f8
be003cd2
bea0eb7c
3dce1e6a
be269433
bda00ebd
3d349fc0
3db93fbe
be2025a5
be0e10e7
3d3db2bb
be52b1ea
bd58e485
3cffd62f
be24a113
3e53d1bb
3dd43e1d
bdd6e87d
3e6f511e
bc9e5068
be6f3d22
3e0694b6
bcc589f1
bd8a741e
bdedc2bd
be8b7126
bd1c5e18
3dc23a31
be2bb08f
be3f1654
3e870402
3b79be21
be62fafe
bd94202f
be989193
bea740d6
3b26965e
bed91463
be3f8655
bd3cfee2
bd822eeb
bd7be9c7
3db8c81e
be28a2c5
be294f96
396c269f
bda6c24c
bc869195
bd42670f
bd814227
3da0c27b
bec30490
3c869f1e
bdbd3508
3df6052b
bd14660a
bbe163ea
3e14b6dc
bf0922d0
bd78137b
3cec2cb3
be8d2883
bcf7b6bd
bd4a44c6
bce1bbd8
bf00671d
3d3d0e77
be2b6a91
bd602873
be29e88d
3d87d468
bcd27fdb
beb667ae
bda057ba
bce6f749
bbfcd76d
bf1cc429
3c695416
bceea17c
3c61000c
3d827094
bddd33cc
bbfffbfc
be818c71
3da2e3cd
beb0d24a
bce306f3
be243683
3b1b2b56
bd9de976
3cb0bf5b
3db32830
3e14c9eb
3c3aa2ff
3db2c37a
3cb3d7c0
bc8043d5
3d4bcdc3
3dcdbedf
3e32f3a0
bda2bd57
beb71715
bdf749ca
be9acd8e
bd319881
bdda128c
be681597
398a4a9b
3cd607f3
bc04baa7
bf52ee36
3da20e80
be54f689
3da65ea0
be9beb17
bf2f8318
3d26b7ed
bf07c0ae
3cfa25f2
bdc5f76a
bd230cc8
3e0c53e6
be3c8f85
3d8b4651
bcf9c144
3d577852
bd0b6fb7
3e03abc4
3d4dbc7b
bcd09db2
bd30d0cc
be12a9ce
bea1a35d
3e47066a
be983d8d
3e583157
be55efd9
bdd6dd39
3caf37eb
3cc049bb
3e3a8046
3e6febcd
bcc00c0a
be2cf9a4
bd33b1a2
bd3a655b
3cdf7805
3df3dddf
bd3958a2
bde5b551
3dc83f80
3dceaaa8
3c90262f
bd2a4966
bd2e00b0
3d1b5af8
3d04f637
3dc87d5b
be4c708f
bd8b0173
bdb21291
bce947d8
be2aa58c
3c4a524f
be598fc9
3cb39877
bdab039a
3c9135c4
bc0f69e5
bd8e533a
3c0b9667
bdbdb232
3b4d406c
bdb91020
bd8826a8
bdb4da4e
bd8a4d01
3cdec4ce
bf3ec6fd
bce024c0
bd701658
beb51d7d
bdfd88a7
3c3382ac
bd27b376
3d859896
3b642ec0
be8b463b
bd206b8a
be150dfe
3e4cb2ba
bd3ee682
be848715
393e3b3f
bd174d9c
3cc354df
bf19a755
bd635d4a
bcfdbb77
3d816657
3d9df420
bd7994ab
3d045112
be5a69f1
3dc9f5ab
beef79a1
bd600b3b
beaf153e
bd5769f4
bd531b5c
bd4b21bb
3e059881
bb481bdb
bcb63a3e
3d94d10f
3cc6e87e
3c7ece06
3dd416ba
3d86e995
3e098c04
bbf0c5d9
be7d335e
bc4356b2
be6c5004
bad9c218
bd832b29
bed53a2c
3bfa08df
bc8b7fb7
bd7c5eda
bf333991
3dac6477
be779e3c
3e0f02c1
beaced4b
beeb0753
bd7efab2
be8fe44e
bd0a32ee
3d520c86
bd13f46e
3e063443
bdb53ebd
bd1e01b8
be150cf9
bb9857e2
3be8c9ac
3dfc77c9
ba5df5ae
bd170e41
bd668372
bdbe288f
bec8f5be
3e41dbc2
be220655
3e58d0b4
be9da96b
bd9167c4
3d97c3d4
3cafdfd1
3dcf331d
3dd59082
bce75a2a
bce331db
bd679f4d
bc4037ae
bd6e77aa
3e0d7347
bdc18c10
be88d62c
3e5d5f92
3e324c27
3da1cce0
bd39ba10
3bdfd7d4
3cc2addd
bcefd05f
bd1a585b
be8b649b
bd9440af
bd1bd78d
bc96de76
be41409b
3c82fa92
bebe9be3
bd2928e3
3d41629a
bd14263c
3cc19f8e
3d0e56cf
3cedae6c
be2cc355
bca7f54f
3cb9fee7
bac8d2af
bd18a27b
bd9606bf
3dc90854
beeff28c
3c77fd4c
bd1cca6a
bec934b6
bc52dbdf
3e03f7fb
bdd52568
3c5adb11
bcd1eff8
bea98238
bc3a6475
beb2d1ec
3e4ac2bd
3d781b6f
be7d2b1f
bc74863c
bc4f5c02
bcaaf1ac
be8c00eb
3d8398ec
bd8b869f
3da0e53e
bcee47c1
bd887a3d
bc6ce766
beb3d89f
3dbf8c54
bef0b1f0
3b9493fe
bec489e3
3c56689a
3d2d39ab
bd894cbd
3ccb6749
bd1dd56b
bd55ae7f
3d0bd4fe
3c986685
3c5f83e4
3dda680d
bd75c58f
bba0490e
3c7a0f13
be191567
3d7fb3c0
bed77ac9
bd6dd6f0
bc5d78ac
be97d127
bde9cff6
3c8f6619
3c8e7ca8
bea3127b
3e3ea639
bea83169
3daa0859
beb83a51
be808ae0
bcf627dc
be98e58b
bdd2a4e9
bd677f9b
bd544d69
3db913a8
be12e60f
3c148855
3d217700
3df0564f
bd7f9939
3dcd9291
3d8891b6
be1ed631
bd14ee0f
be143168
bed869d2
3de44535
be874e54
3e80bf3a
be813d7c
bc190929
3badbac5
3da67110
3e459c78
3e3c6002
3c274085
be55fcab
bd70f314
3c009189
bd506694
3e396d9d
bd613ccd
be634a44
3d27aafd
3d9e292b
3de4d3a0
bc3f4fd0
3e305f3f
3d65ba70
bb63a8d8
3e122b69
be9b9248
bd0b8cdb
bd1aa04f
bda0fe23
beb79220
3dfdba3d
be8117e4
3d2ca214
bdae8b42
bd54b992
3b63fc76
3cc497c6
3e31a8f8
becf40d7
bd4c8a37
bd0f1c40
bc0fa164
bcafb189
3d16be35
3bbd9bbc
beebb496
bd63a61a
bccbd23a
be352e2c
bdb14ffa
3c8f7ed8
b8ffe94c
bedb9e04
bbe7ea31
3da1aea6
3ca509d1
be5b37ce
3e492800
3c7d1dd3
be448630
3ccf7a9e
bd41edcf
3d6db9fe
bf0c3b65
bcf830de
3d151c77
3d87e274
3d15ecb4
bdcb3ba9
bcfc91b0
be6764f0
3db2e1f5
be07814e
bd050ee5
be5624c2
3d3ee6ee
bc835fe3
3d30dc08
3d7c476a
3cd13423
3b261cec
3e225ffa
bc7eadcc
bd45c49c
3deb7c3d
3db4eb3f
3ce69fca
bcf9b2e9
be3b437d
3cf2340c
be4c3a14
bd748911
bd8ae1e9
be64b187
3dab366f
bd51b006
3b224e97
bec8f710
3e1d46ef
be97b162
3e0170ae
bea537ed
bf182156
3d6c8d4a
bf3678b7
bda0c5b9
bcea926b
3cf86351
3d81f677
be5915de
3db02009
3cba549b
3d5aa6b9
bc9387aa
3db7c775
3cde61d1
bc9ddea0
bcf873ae
bdbc8b66
bde62691
3d5638e4
be839c0d
3daf7be0
be8916b5
3d8fa7ae
3e2c7975
bd0ca5eb
3e130d2a
3e64f018
bc66647e
be175887
bdd0ef51
bd06fb97
bda31307
3dee0a0d
3d13a02d
be800a28
3e21ff06
3d844f26
3d82c0b8
bb05e578
bcffdf9c
3d9725aa
bd16d32c
3dc0ab30
be5f4527
bd337b4b
bd0cc987
bd9d6a76
be818e5f
3d07e66c
bd57b251
3db097f0
bc49642f
3c90df3a
3c498c7f
bcfe602b
bd314c53
bbc01e22
bc02fbca
bd07284d
bd69415e
bd388a1c
bd5a55d3
3d3bdf60
becee6b8
bc10b011
bc8159e3
be960a66
bccde6bf
bceee348
3cb935e1
be011837
3c47f884
be199389
bc855122
be5e84c6
3e808d93
3d9bb009
be815f0d
3d106c6a
bd4051f4
3d78784b
beb7af14
3cc4266e
bd625ae2
3d51b249
3e1731c6
bdc6f7cd
3c4bffc9
be455167
bd6743ca
bef4af10
bc38a5be
be5992e0
bb425786
3e204d20
bc180b3e
3a70c61f
3b99884b
bd53aabc
3c5360ff
39f622d4
bcf924c3
3ccbe2fa
3d690aea
3c5dbadb
bd5cd22a
be1c2d6c
3ce2443c
be8039d3
bdeb8886
bdf532cf
be764827
bd9cbc62
bd09681a
bd08c62c
beaf16e9
3dda651d
bebb8b37
3e073f3f
be8d9b0e
bee142d2
bd121a14
bf3835ea
bd01edfd
bdd63d62
3d02f352
3c7d1930
bd986637
3d09ac6a
bd0421ae
bc9f5db6
3a8d9e15
3dce3ffb
3bf84535
3c00baea
3bea4dfe
bbd12910
be98228b
3e01a215
be20b419
3df60638
be90326f
bc9ece50
3ce3c0a2
bd21f510
3e22e21b
3d833f2e
3d0ea7df
bc7dc482
bc4e82d6
bdc5f465
3ab805c6
3cadec97
3cbe4e76
bd912792
3d857999
3dbb5488
3d91f214
bc985fe4
3d85ca6a
3e0cbf1b
bd917ad8
3e1cf0fa
be657158
bd8df3b7
bd940b13
bdd1982b
be3bbd48
3e073928
be8d8ed2
3d446347
3d212b7e
3cddea53
3c8c3de8
bcb2bd29
bdb3d4cb
be8f3e90
3c9e5073
bdb5fa1b
bcc9e442
bc9859dd
bd9eca5f
3d81cb19
becbb642
bd06443d
bc8a4e74
be8b2c74
bcb6acb3
ba500250
bbbe9273
be99ef41
bced3440
be94b517
bc30189e
be733e05
3e45c662
bdb329d0
be122851
3c5246c2
bdd5bdf9
bde823b3
be86af84
3c9eef02
bd63ed89
3c40a7bf
3e23286a
bdb54ee2
bc58fcf5
be285a7e
bd7800ee
bf136b30
3c8bff63
bd7b2cd4
bcd00c9a
3d6067c6
bc45a160
3e1f39e0
bc1ea56c
bd82df65
3db1729d
3d629df9
bc27b49d
3d26759a
3d56e777
3df5fce7
3cbfde3b
beaaa365
3b41eef1
be826646
39efa3a0
bdd83438
bdf5a3e2
bd674b29
bd2824a6
bd9fe764
beed90c7
3de3fd10
beb4df38
bc6d0c3d
bec3949c
be80b065
bd9da41a
bf053add
3ced335a
bdd3bf51
bd044f81
3dc5ff22
bde07f42
3d7c1b6d
bd6e20f2
3ca24b9c
3c85c40c
bd49929d
ba30263e
bdae7dd5
bd79a618
be0ac0c0
beb4bd2b
3d5bceb8
be8ba210
3e471dfa
be941e74
bbd6857c
bcfe303a
3c7dd911
ba871fb6
3d68c98f
3c927e19
bcbdf06d
bd947ae9
3c9606d0
bc6ed825
3c7458cb
bd57e7fb
bdbfb51a
3da494f8
3d3e15a8
3bb70e63
bdbe035b
3cdec9ad
3cd55d86
3cb33661
3dbdb37d
bdf3f6c2
bd2d4262
bdd0530f
bd4d699b
be906b53
3e0d6683
be23ef1f
bda1feb2
bd5acd82
3c17278a
3cfa302a
bd712cbb
3e1bc1de
bd8d8672
3d2c9692
bd14d559
bcadd77e
bd550c06
bde5c720
3cf93a3c
be7553b6
bd52be7d
bcdd2a75
be42b3f1
3c959573
3d5d8166
3db230ee
be04dfba
bd1f61d5
bdcc46bb
3d92566a
be8aa051
3ddbcbbd
bbebafe3
bdd594c2
bc892e53
bd42db8f
be84a4eb
bed57d8b
ba2e9921
3c2b9637
bc412363
bb9d0e0c
bdfd97b4
3d39856d
bd4e4b4d
3e153c46
be03944f
3c12d3d5
bd73bdd0
3d54f305
be1b0e8c
3d081105
bd958718
3d9e3707
bcfd4b3c
3da88787
be4a95db
bcc8378d
3d9f14e1
3d08fd92
3e083dac
bd7360c1
bc915916
3c6775e9
be83f004
bb564146
bd0291c2
be74a4da
3d7f73ac
3c3afc47
bd8430fa
beffc52e
bcdc7fb9
be5982ec
3e410992
be9c1783
bef3a49e
3d74e266
bef4b0e6
bdd8f53c
bd05baba
3c024756
bd3aec7d
be84eb48
3cc2a147
be0382af
3d7c206b
bd638259
3d98f05b
3d292669
bc7e5229
bd7430d1
be1b789f
be2b973b
3d878ce5
be5d2997
3d948de0
be005e24
bc742283
3d9237d3
3d955da5
bdb83029
3dd97c2c
bd937a65
bd6837f1
bc45301b
3bd68aba
3ccc981a
3d7654a8
3d892f8e
bc25ec60
3d32ccd4
3dd67eec
3d35cf97
bd85583b
bd783700
bd629468
3b3258e8
bd52187e
be6188b5
bb3376d8
bd54f3d1
bdd25103
be52fc31
bd1913bb
bd396630
3d842819
bd486a84
3c38b417
bd577f34
bd447081
bd58b902
3dda2d2e
bd61e621
bdd365d5
3d73b3cc
bdbb1247
3d0b683a
3c0c3b1e
bea9ec1c
3c914ef2
bd318fc9
be2b4103
3d33f162
3c6d5523
bdb3772f
3e24b43c
bc974996
be125543
3dbd7143
be574b39
3dcf891d
bd6c9f78
be08db59
3d2aff6f
bbd4f8ca
3ccec18f
bea60f68
ba109653
bcbe0714
ba55056d
3de7207b
bdba5368
bb8a0603
bdb78e51
bd42232d
befc8f87
bdfe41ad
be57de75
bd97f127
3d8b898d
bd248ac2
3dbb1169
3cbcc578
bcf3c0ae
3d0565bc
bd481571
bd84ca5e
3e15f383
3e00327a
3daf5ca8
bdb6828d
3d169201
3d4406ff
bea8a864
bdd89f99
bdf21322
bd11d2aa
bd7d33c4
3cdb32e4
bd3a88d1
be916033
3d16cf33
be8dc668
3dfa9517
be8267ae
be88fae8
bcb27458
bed8838c
bbc21b1e
bd728b88
3cb66e97
3dac47f8
be7872a1
3de9a3b8
bb847c5a
3dd8c9ba
3bc952fd
3e08b3ee
bc13db8b
bca70845
bc888932
bdce7bd2
bedcce12
3d929cd8
be0ec73e
3e136e05
be12d352
bd7b4624
3e054387
3d0c2b6f
3d3594ca
3d7db815
bba4ad93
bdc32883
bd4177fa
bd51ff74
bdaf784d
3d8f92a5
3c61a3c9
bdc4af2e
3e0be835
3d8fc18f
bc31cf8b
bdf2c3f4
bd5cce43
3c8d1b20
bc17a186
3e4d5c97
be34fcd1
bd059cc5
bb5924c7
bdc9ce2f
be3eec59
3e4b47a6
be37ebd9
3da4d185
bcb6c2d1
bd0b992f
bd303ef8
bdd91a0b
3dc7679d
bddbdb2c
bd14cad7
bd089ffb
3d8d8f08
3ac91b47
3c897218
3d88b418
bf05b5fc
bdcabb7b
3cb9e050
be63a495
3b6ba29a
bd5ba630
3da7b07c
bd8201c6
bb2fe247
bcd96e24
3cb99f6a
be470ac8
3cc0e7a9
bc6c35d8
be94ad90
3cd4e779
bce1f22b
3ce86e44
be381fd7
3da4df05
3d9bde8f
3cb843a1
bcba7bfb
3da0b10d
bacca884
bdb75487
3e42a510
bf0128dd
bd321ff4
3d4d7fdb
bd452f83
bd423262
bd7e0486
bd003ba2
bd93a4dd
bd83232b
3db4189d
bdd09c35
bd7b7cc0
3deca9a8
b9f85192
3d884714
bb825822
3dc0c7db
bd718a36
be9cdb34
bc55eabe
bcebfef5
be29f1c6
3cba1ead
3cee3ff5
3d524f45
bed9eed9
3d501073
bed2e937
3e1c25ec
be410425
bf111d57
3dcfa11f
bf1226a5
bd7bde8d
bd2234d5
3a3d5c05
3d822837
bca0b2bb
bd0c950a
bdb05e92
3dd49dd7
bcc16c47
3dbcdf23
3cdd23c2
bde227fd
3c808068
bdfbf8c6
bea8f3d6
3db7aeb5
be903fdd
3da9aa4e
bdf309fb
bda9b2f8
3ddf9002
3e29e8d4
bda963ff
3d64f42d
bd69f92b
be43339b
bc29d3fc
bd630c43
3c325ce8
3e15591b
3c6c1acf
bdc780c3
3d0b744f
3dd83b17
bbc38392
bd571e1b
bc0a864a
3d547258
3d4b90b8
3e13d8b2
beac3f8d
bc2c5de7
bcb0e812
bd322020
be21c322
bc3af5ea
be449a9e
3e6514a4
bc414002
3d2fc7ac
bcdb72b7
3d053297
3dde7bbe
3df209b6
3d462da7
3df521fe
3e2aafea
b9c8141f
bd771e3e
be166118
3e1b8570
3ce0010a
bd3dc13c
3e291d59
bd1c0e50
bd09b93d
3dce4f12
be400456
3d3c8126
bd85c89a
3e957cd0
3ddfa1ab
bdab667c
3dc7b8a1
bd1cdda6
be323cdf
bc1fb5af
bd6bf98e
3e09aa9e
bdf61c62
3ca0af58
bdd13a72
3e3fdb55
bd1dfe82
bcdff5a2
be4c7392
3e85c929
3ea47c0a
3ce2f0b5
be1f5b27
bd072ad5
bd558a34
bd2aece1
be0d5907
3e2f8c82
bcdc03dc
3e1d48dd
be6a014f
bda02430
3eb6c4e8
3e3fd74f
3de17b8c
3d879e26
3d939660
bd0c63d7
3e88d687
3c8742cc
bd98d508
bc8edb4c
bdc6ec45
bd7356ff
bc118410
3e2ce0a7
be2d0eec
3d7118cc
3e0871db
3e3893e2
3dec91c4
3e14e0db
3e5aac7d
bcdd218f
bcf5fe3b
bc318c5d
3e0a8ba4
be75661e
3e6402a1
3cd80b02
bc7eaa5b
bc4185eb
3b7f5ba2
3d88e7d8
3dc768f6
3c2b5189
3df9dbd4
b9ac1ad7
3e255f33
bda53f2b
bdbaeecd
3d98b3c4
bde2a346
3db8b2c1
bd81b71e
be667e9b
be47fbe7
bd82ea62
3d999be9
bd889d35
bb11db16
3cb5adcc
3de9d3aa
3e6d1f0a
be1324be
3e3cdf79
3dc156dd
be950b00
bd082dd7
be5fe557
bd582711
3d03bba3
3d0c02e6
3ddc64c9
3d034bdf
3cb8e95f
bcfdc93a
3c93f700
be2b6448
b8d48b43
3e1b0dff
bd214d57
3d8ad5c1
bd0f13e2
bd037f2d
3db6ae3c
3bb8a3fc
bd859493
3e5cde2a
3da891ac
bda5d214
b9d38ea3
be3a9c23
3e57afa0
3c092ec2
3c734777
3ddb3d1f
3e0bca6a
bc3033bc
3ddeb283
bd91f1b4
b9931958
be9ae15b
3e9148f6
3df80653
3d4e5cc7
3dabdcd0
bdedd3ca
bd406e50
bd983e08
be8ee667
bdb0e332
bda1161c
3c893b88
bd0b1bba
3e27b5bb
be70d243
bd7efccd
bdb8a915
3eb437c4
3e85a141
bcc0a3ba
be6fd7ec
bda24c5e
be85b521
bd0716b5
beb3226a
3dd4dffe
3ba00c88
3cf8469d
be89c17e
bc5b269a
3e71b8a9
3ded9cec
bbeca046
3d316d47
3e21baed
bcd486e5
3e89d51b
bc441492
bc98aaea
be1691bf
bcab8777
bd1cd24f
3cf7d738
bc52250d
becb5920
3dab8dbf
3da2230a
3d3e0ad6
be59973b
3e0be724
3ee8ed5a
bd142d19
bd7d9301
bc2c6ec0
3e3ecbbe
be38d3df
3e451c0a
3e80065d
3de2ed15
bd8218c2
3e064aaf
bde9a7bc
3e26548c
bd545a5c
3e0167ab
bdb6b46f
3e5ffe0e
bdb5d1d8
be0b9dfd
390a17da
be01a755
3dace61e
bde25b14
be8f0590
be6e49b0
3d10cecb
3dee8a3d
bc8054b9
3ca62898
bd7bc966
3e0ca47c
3e25c8a5
bdaec815
3e2d6422
3e0bf992
be89e533
bd8eac1f
be65e5dc
bece1e22
3c6a3049
bdd6f68f
bdcc01d7
3ce4d6ae
bcd8781b
3d0cb0e0
3d05d4b6
be280812
be2040ac
3e66ee7c
bd32a1d3
bd704f7a
bd76a627
bd44f6dd
3e881feb
b94a01c8
bd7d4fac
3e03c72c
3dd11db0
bab46610
bc78b4f8
beaf551e
3e958c65
bcc80cb8
3ac920a0
3e57683d
3c81409d
bc98c275
3e93c137
be0aa978
3ac395d4
be0dd76d
3ea9ca98
3e8b418c
bd385c81
3d9d21c8
bd6cdf87
be934f7b
bc73ad27
be376e96
3e01a882
bdf70123
3cec1510
be3f4d07
3e9c58fc
be85a7ec
3cdf0efa
be6ac745
3eba31f2
3ed43634
3c036f3c
be62f8c5
bd53733d
be86ef4e
bd941c2c
be84d688
3e3f4ace
3d0e85d5
3e484caf
be5f09d3
bcd75a66
3ed085ca
3e94508d
3e97b59a
3d4b3058
3d75bbbe
be93d175
3eff65de
bd228aed
bdab62c8
bb5800ad
bd9d78da
bd35c6e4
bd5e13e3
bd352fd4
bee714c9
3d8465f5
3e395aac
3d628514
3e1ddd22
